#include "magic_wand_model_data.h"

// We need to keep the data array aligned on some architectures.
#ifdef __has_attribute
#define HAVE_ATTRIBUTE(x) __has_attribute(x)
#else
#define HAVE_ATTRIBUTE(x) 0
#endif
#if HAVE_ATTRIBUTE(aligned) || (defined(__GNUC__) && !defined(__clang__))
#define DATA_ALIGN_ATTRIBUTE __attribute__((aligned(4)))
#else
#define DATA_ALIGN_ATTRIBUTE
#endif

const unsigned char g_magic_wand_model_data[] DATA_ALIGN_ATTRIBUTE = {
  // Paste the data of the char array in `src/model.cc` here
  0x1c, 0x00, 0x00, 0x00, 0x54, 0x46, 0x4c, 0x33, 0x14, 0x00, 0x20, 0x00,
  0x04, 0x00, 0x08, 0x00, 0x0c, 0x00, 0x10, 0x00, 0x14, 0x00, 0x00, 0x00,
  0x18, 0x00, 0x1c, 0x00, 0x14, 0x00, 0x00, 0x00, 0x03, 0x00, 0x00, 0x00,
  0x18, 0x00, 0x00, 0x00, 0x2c, 0x00, 0x00, 0x00, 0xd8, 0x00, 0x00, 0x00,
  0x2c, 0x00, 0x00, 0x00, 0x80, 0x00, 0x00, 0x00, 0x78, 0x00, 0x00, 0x00,
  0x05, 0x00, 0x00, 0x00, 0x28, 0x07, 0x00, 0x00, 0x44, 0x06, 0x00, 0x00,
  0xbc, 0x03, 0x00, 0x00, 0xf8, 0x02, 0x00, 0x00, 0xac, 0x01, 0x00, 0x00,
  0x01, 0x00, 0x00, 0x00, 0xd0, 0x00, 0x00, 0x00, 0x14, 0x00, 0x00, 0x00,
  0xdc, 0x32, 0x00, 0x00, 0xd8, 0x32, 0x00, 0x00, 0xd0, 0x31, 0x00, 0x00,
  0x1c, 0x31, 0x00, 0x00, 0x74, 0x30, 0x00, 0x00, 0xfc, 0x2f, 0x00, 0x00,
  0x90, 0x2f, 0x00, 0x00, 0x40, 0x13, 0x00, 0x00, 0xec, 0x11, 0x00, 0x00,
  0x10, 0x10, 0x00, 0x00, 0xb4, 0x07, 0x00, 0x00, 0xb0, 0x32, 0x00, 0x00,
  0xac, 0x32, 0x00, 0x00, 0xa8, 0x32, 0x00, 0x00, 0xa4, 0x32, 0x00, 0x00,
  0xa0, 0x32, 0x00, 0x00, 0x9c, 0x32, 0x00, 0x00, 0x98, 0x32, 0x00, 0x00,
  0x94, 0x32, 0x00, 0x00, 0x3c, 0x00, 0x00, 0x00, 0x00, 0x00, 0x00, 0x00,
  0x01, 0x00, 0x00, 0x00, 0x0c, 0x00, 0x00, 0x00, 0x08, 0x00, 0x0c, 0x00,
  0x04, 0x00, 0x08, 0x00, 0x08, 0x00, 0x00, 0x00, 0x08, 0x00, 0x00, 0x00,
  0x13, 0x00, 0x00, 0x00, 0x13, 0x00, 0x00, 0x00, 0x6d, 0x69, 0x6e, 0x5f,
  0x72, 0x75, 0x6e, 0x74, 0x69, 0x6d, 0x65, 0x5f, 0x76, 0x65, 0x72, 0x73,
  0x69, 0x6f, 0x6e, 0x00, 0xb6, 0xce, 0xff, 0xff, 0x04, 0x00, 0x00, 0x00,
  0x10, 0x00, 0x00, 0x00, 0x31, 0x2e, 0x35, 0x2e, 0x30, 0x00, 0x00, 0x00,
  0x00, 0x00, 0x00, 0x00, 0x00, 0x00, 0x00, 0x00, 0x0f, 0x00, 0x00, 0x00,
  0x4d, 0x4c, 0x49, 0x52, 0x20, 0x43, 0x6f, 0x6e, 0x76, 0x65, 0x72, 0x74,
  0x65, 0x64, 0x2e, 0x00, 0x00, 0x00, 0x0e, 0x00, 0x18, 0x00, 0x04, 0x00,
  0x08, 0x00, 0x0c, 0x00, 0x10, 0x00, 0x14, 0x00, 0x0e, 0x00, 0x00, 0x00,
  0x14, 0x00, 0x00, 0x00, 0x5c, 0x00, 0x00, 0x00, 0x60, 0x00, 0x00, 0x00,
  0x64, 0x00, 0x00, 0x00, 0x84, 0x00, 0x00, 0x00, 0x12, 0x00, 0x00, 0x00,
  0x9c, 0x31, 0x00, 0x00, 0x2c, 0x31, 0x00, 0x00, 0x88, 0x30, 0x00, 0x00,
  0xe0, 0x2f, 0x00, 0x00, 0x38, 0x2f, 0x00, 0x00, 0xd4, 0x2e, 0x00, 0x00,
  0x6c, 0x2e, 0x00, 0x00, 0x18, 0x12, 0x00, 0x00, 0xbc, 0x10, 0x00, 0x00,
  0xe0, 0x0e, 0x00, 0x00, 0x0c, 0x06, 0x00, 0x00, 0x28, 0x05, 0x00, 0x00,
  0xe8, 0x03, 0x00, 0x00, 0x3c, 0x03, 0x00, 0x00, 0x98, 0x02, 0x00, 0x00,
  0xd4, 0x01, 0x00, 0x00, 0x10, 0x01, 0x00, 0x00, 0x84, 0x00, 0x00, 0x00,
  0x01, 0x00, 0x00, 0x00, 0x00, 0x00, 0x00, 0x00, 0x01, 0x00, 0x00, 0x00,
  0x11, 0x00, 0x00, 0x00, 0x08, 0x00, 0x00, 0x00, 0x74, 0x05, 0x00, 0x00,
  0x94, 0x04, 0x00, 0x00, 0x78, 0x03, 0x00, 0x00, 0xbc, 0x02, 0x00, 0x00,
  0x30, 0x02, 0x00, 0x00, 0x50, 0x01, 0x00, 0x00, 0xa8, 0x00, 0x00, 0x00,
  0x10, 0x00, 0x00, 0x00, 0x04, 0x00, 0x00, 0x00, 0x6d, 0x61, 0x69, 0x6e,
  0x00, 0x00, 0x00, 0x00, 0x7a, 0xff, 0xff, 0xff, 0x00, 0x00, 0x00, 0x09,
  0x04, 0x00, 0x00, 0x00, 0x1c, 0x00, 0x00, 0x00, 0x10, 0x00, 0x00, 0x00,
  0x04, 0x00, 0x00, 0x00, 0xb2, 0xcf, 0xff, 0xff, 0x00, 0x00, 0x80, 0x3f,
  0x01, 0x00, 0x00, 0x00, 0x11, 0x00, 0x00, 0x00, 0x01, 0x00, 0x00, 0x00,
  0x10, 0x00, 0x00, 0x00, 0xa0, 0xfa, 0xff, 0xff, 0x19, 0x00, 0x00, 0x00,
  0x00, 0x00, 0x00, 0x19, 0x01, 0x00, 0x00, 0x00, 0x40, 0xcf, 0xff, 0xff,
  0x14, 0x00, 0x00, 0x00, 0x12, 0x00, 0x00, 0x00, 0x18, 0x00, 0x00, 0x00,
  0x30, 0x00, 0x00, 0x00, 0x20, 0x00, 0x00, 0x00, 0x02, 0x00, 0x00, 0x00,
  0x01, 0x00, 0x00, 0x00, 0x04, 0x00, 0x00, 0x00, 0x08, 0x00, 0x00, 0x00,
  0x49, 0x64, 0x65, 0x6e, 0x74, 0x69, 0x74, 0x79, 0x00, 0x00, 0x00, 0x00,
  0x02, 0x00, 0x00, 0x00, 0xff, 0xff, 0xff, 0xff, 0x04, 0x00, 0x00, 0x00,
  0x24, 0xd0, 0xff, 0xff, 0x00, 0x00, 0x0e, 0x00, 0x18, 0x00, 0x08, 0x00,
  0x0c, 0x00, 0x10, 0x00, 0x07, 0x00, 0x14, 0x00, 0x0e, 0x00, 0x00, 0x00,
  0x00, 0x00, 0x00, 0x08, 0x03, 0x00, 0x00, 0x00, 0x18, 0x00, 0x00, 0x00,
  0x0c, 0x00, 0x00, 0x00, 0x04, 0x00, 0x00, 0x00, 0x40, 0xcf, 0xff, 0xff,
  0x01, 0x00, 0x00, 0x00, 0x10, 0x00, 0x00, 0x00, 0x03, 0x00, 0x00, 0x00,
  0x0f, 0x00, 0x00, 0x00, 0x07, 0x00, 0x00, 0x00, 0x04, 0x00, 0x00, 0x00,
  0xc8, 0xcf, 0xff, 0xff, 0x14, 0x00, 0x00, 0x00, 0x11, 0x00, 0x00, 0x00,
  0x18, 0x00, 0x00, 0x00, 0x5c, 0x00, 0x00, 0x00, 0x4c, 0x00, 0x00, 0x00,
  0x02, 0x00, 0x00, 0x00, 0x01, 0x00, 0x00, 0x00, 0x04, 0x00, 0x00, 0x00,
  0x34, 0x00, 0x00, 0x00, 0x73, 0x65, 0x71, 0x75, 0x65, 0x6e, 0x74, 0x69,
  0x61, 0x6c, 0x2f, 0x64, 0x65, 0x6e, 0x73, 0x65, 0x5f, 0x31, 0x2f, 0x4d,
  0x61, 0x74, 0x4d, 0x75, 0x6c, 0x3b, 0x73, 0x65, 0x71, 0x75, 0x65, 0x6e,
  0x74, 0x69, 0x61, 0x6c, 0x2f, 0x64, 0x65, 0x6e, 0x73, 0x65, 0x5f, 0x31,
  0x2f, 0x42, 0x69, 0x61, 0x73, 0x41, 0x64, 0x64, 0x00, 0x00, 0x00, 0x00,
  0x02, 0x00, 0x00, 0x00, 0xff, 0xff, 0xff, 0xff, 0x04, 0x00, 0x00, 0x00,
  0xc8, 0xcf, 0xff, 0xff, 0xda, 0xfc, 0xff, 0xff, 0x00, 0x00, 0x00, 0x08,
  0x03, 0x00, 0x00, 0x00, 0x24, 0x00, 0x00, 0x00, 0x18, 0x00, 0x00, 0x00,
  0x0c, 0x00, 0x00, 0x00, 0x00, 0x00, 0x06, 0x00, 0x08, 0x00, 0x07, 0x00,
  0x06, 0x00, 0x00, 0x00, 0x00, 0x00, 0x00, 0x01, 0x01, 0x00, 0x00, 0x00,
  0x0f, 0x00, 0x00, 0x00, 0x03, 0x00, 0x00, 0x00, 0x0e, 0x00, 0x00, 0x00,
  0x06, 0x00, 0x00, 0x00, 0x03, 0x00, 0x00, 0x00, 0xe8, 0xfb, 0xff, 0xff,
  0x09, 0x00, 0x00, 0x00, 0x00, 0x00, 0x00, 0x09, 0x01, 0x00, 0x00, 0x00,
  0x88, 0xd0, 0xff, 0xff, 0x14, 0x00, 0x00, 0x00, 0x10, 0x00, 0x00, 0x00,
  0x18, 0x00, 0x00, 0x00, 0x6c, 0x00, 0x00, 0x00, 0x5c, 0x00, 0x00, 0x00,
  0x02, 0x00, 0x00, 0x00, 0x01, 0x00, 0x00, 0x00, 0x10, 0x00, 0x00, 0x00,
  0x46, 0x00, 0x00, 0x00, 0x73, 0x65, 0x71, 0x75, 0x65, 0x6e, 0x74, 0x69,
  0x61, 0x6c, 0x2f, 0x64, 0x65, 0x6e, 0x73, 0x65, 0x2f, 0x4d, 0x61, 0x74,
  0x4d, 0x75, 0x6c, 0x3b, 0x73, 0x65, 0x71, 0x75, 0x65, 0x6e, 0x74, 0x69,
  0x61, 0x6c, 0x2f, 0x64, 0x65, 0x6e, 0x73, 0x65, 0x2f, 0x52, 0x65, 0x6c,
  0x75, 0x3b, 0x73, 0x65, 0x71, 0x75, 0x65, 0x6e, 0x74, 0x69, 0x61, 0x6c,
  0x2f, 0x64, 0x65, 0x6e, 0x73, 0x65, 0x2f, 0x42, 0x69, 0x61, 0x73, 0x41,
  0x64, 0x64, 0x00, 0x00, 0x02, 0x00, 0x00, 0x00, 0xff, 0xff, 0xff, 0xff,
  0x10, 0x00, 0x00, 0x00, 0xa8, 0xd1, 0xff, 0xff, 0x00, 0x00, 0x0a, 0x00,
  0x10, 0x00, 0x04, 0x00, 0x08, 0x00, 0x0c, 0x00, 0x0a, 0x00, 0x00, 0x00,
  0x02, 0x00, 0x00, 0x00, 0x10, 0x00, 0x00, 0x00, 0x04, 0x00, 0x00, 0x00,
  0x01, 0x00, 0x00, 0x00, 0x0e, 0x00, 0x00, 0x00, 0x02, 0x00, 0x00, 0x00,
  0x0d, 0x00, 0x00, 0x00, 0x05, 0x00, 0x00, 0x00, 0xa8, 0xfc, 0xff, 0xff,
  0x16, 0x00, 0x00, 0x00, 0x00, 0x00, 0x00, 0x16, 0x01, 0x00, 0x00, 0x00,
  0x48, 0xd1, 0xff, 0xff, 0x14, 0x00, 0x00, 0x00, 0x0f, 0x00, 0x00, 0x00,
  0x18, 0x00, 0x00, 0x00, 0x40, 0x00, 0x00, 0x00, 0x30, 0x00, 0x00, 0x00,
  0x02, 0x00, 0x00, 0x00, 0x01, 0x00, 0x00, 0x00, 0x70, 0x00, 0x00, 0x00,
  0x1a, 0x00, 0x00, 0x00, 0x73, 0x65, 0x71, 0x75, 0x65, 0x6e, 0x74, 0x69,
  0x61, 0x6c, 0x2f, 0x66, 0x6c, 0x61, 0x74, 0x74, 0x65, 0x6e, 0x2f, 0x52,
  0x65, 0x73, 0x68, 0x61, 0x70, 0x65, 0x00, 0x00, 0x02, 0x00, 0x00, 0x00,
  0xff, 0xff, 0xff, 0xff, 0x70, 0x00, 0x00, 0x00, 0x2c, 0xd1, 0xff, 0xff,
  0x3e, 0xfe, 0xff, 0xff, 0x00, 0x00, 0x00, 0x05, 0x01, 0x00, 0x00, 0x00,
  0x38, 0x00, 0x00, 0x00, 0x2c, 0x00, 0x00, 0x00, 0x14, 0x00, 0x00, 0x00,
  0x00, 0x00, 0x0e, 0x00, 0x14, 0x00, 0x00, 0x00, 0x10, 0x00, 0x0c, 0x00,
  0x08, 0x00, 0x04, 0x00, 0x0e, 0x00, 0x00, 0x00, 0x03, 0x00, 0x00, 0x00,
  0x01, 0x00, 0x00, 0x00, 0x03, 0x00, 0x00, 0x00, 0x01, 0x00, 0x00, 0x00,
  0x01, 0x00, 0x00, 0x00, 0x0d, 0x00, 0x00, 0x00, 0x01, 0x00, 0x00, 0x00,
  0x0c, 0x00, 0x00, 0x00, 0xe8, 0xd1, 0xff, 0xff, 0x14, 0x00, 0x00, 0x00,
  0x0e, 0x00, 0x00, 0x00, 0x20, 0x00, 0x00, 0x00, 0x58, 0x00, 0x00, 0x00,
  0x40, 0x00, 0x00, 0x00, 0x04, 0x00, 0x00, 0x00, 0x01, 0x00, 0x00, 0x00,
  0x07, 0x00, 0x00, 0x00, 0x01, 0x00, 0x00, 0x00, 0x10, 0x00, 0x00, 0x00,
  0x22, 0x00, 0x00, 0x00, 0x73, 0x65, 0x71, 0x75, 0x65, 0x6e, 0x74, 0x69,
  0x61, 0x6c, 0x2f, 0x6d, 0x61, 0x78, 0x5f, 0x70, 0x6f, 0x6f, 0x6c, 0x69,
  0x6e, 0x67, 0x32, 0x64, 0x5f, 0x31, 0x2f, 0x4d, 0x61, 0x78, 0x50, 0x6f,
  0x6f, 0x6c, 0x00, 0x00, 0x04, 0x00, 0x00, 0x00, 0xff, 0xff, 0xff, 0xff,
  0x07, 0x00, 0x00, 0x00, 0x01, 0x00, 0x00, 0x00, 0x10, 0x00, 0x00, 0x00,
  0xe4, 0xd1, 0xff, 0xff, 0x1a, 0xfe, 0xff, 0xff, 0x00, 0x00, 0x00, 0x01,
  0x24, 0x00, 0x00, 0x00, 0x18, 0x00, 0x00, 0x00, 0x04, 0x00, 0x00, 0x00,
  0x0c, 0xfe, 0xff, 0xff, 0x01, 0x00, 0x00, 0x00, 0x01, 0x00, 0x00, 0x00,
  0x00, 0x00, 0x00, 0x01, 0x01, 0x00, 0x00, 0x00, 0x0c, 0x00, 0x00, 0x00,
  0x03, 0x00, 0x00, 0x00, 0x0b, 0x00, 0x00, 0x00, 0x09, 0x00, 0x00, 0x00,
  0x02, 0x00, 0x00, 0x00, 0x90, 0xd2, 0xff, 0xff, 0x14, 0x00, 0x00, 0x00,
  0x0d, 0x00, 0x00, 0x00, 0x20, 0x00, 0x00, 0x00, 0xb8, 0x00, 0x00, 0x00,
  0xa0, 0x00, 0x00, 0x00, 0x04, 0x00, 0x00, 0x00, 0x01, 0x00, 0x00, 0x00,
  0x15, 0x00, 0x00, 0x00, 0x01, 0x00, 0x00, 0x00, 0x10, 0x00, 0x00, 0x00,
  0x83, 0x00, 0x00, 0x00, 0x73, 0x65, 0x71, 0x75, 0x65, 0x6e, 0x74, 0x69,
  0x61, 0x6c, 0x2f, 0x63, 0x6f, 0x6e, 0x76, 0x32, 0x64, 0x5f, 0x31, 0x2f,
  0x52, 0x65, 0x6c, 0x75, 0x3b, 0x73, 0x65, 0x71, 0x75, 0x65, 0x6e, 0x74,
  0x69, 0x61, 0x6c, 0x2f, 0x63, 0x6f, 0x6e, 0x76, 0x32, 0x64, 0x5f, 0x31,
  0x2f, 0x42, 0x69, 0x61, 0x73, 0x41, 0x64, 0x64, 0x3b, 0x73, 0x65, 0x71,
  0x75, 0x65, 0x6e, 0x74, 0x69, 0x61, 0x6c, 0x2f, 0x63, 0x6f, 0x6e, 0x76,
  0x32, 0x64, 0x5f, 0x31, 0x2f, 0x43, 0x6f, 0x6e, 0x76, 0x32, 0x44, 0x3b,
  0x73, 0x65, 0x71, 0x75, 0x65, 0x6e, 0x74, 0x69, 0x61, 0x6c, 0x2f, 0x63,
  0x6f, 0x6e, 0x76, 0x32, 0x64, 0x5f, 0x31, 0x2f, 0x42, 0x69, 0x61, 0x73,
  0x41, 0x64, 0x64, 0x2f, 0x52, 0x65, 0x61, 0x64, 0x56, 0x61, 0x72, 0x69,
  0x61, 0x62, 0x6c, 0x65, 0x4f, 0x70, 0x2f, 0x72, 0x65, 0x73, 0x6f, 0x75,
  0x72, 0x63, 0x65, 0x00, 0x04, 0x00, 0x00, 0x00, 0xff, 0xff, 0xff, 0xff,
  0x15, 0x00, 0x00, 0x00, 0x01, 0x00, 0x00, 0x00, 0x10, 0x00, 0x00, 0x00,
  0xfc, 0xd3, 0xff, 0xff, 0x00, 0x00, 0x0e, 0x00, 0x1a, 0x00, 0x08, 0x00,
  0x0c, 0x00, 0x10, 0x00, 0x07, 0x00, 0x14, 0x00, 0x0e, 0x00, 0x00, 0x00,
  0x00, 0x00, 0x00, 0x05, 0x01, 0x00, 0x00, 0x00, 0x3c, 0x00, 0x00, 0x00,
  0x30, 0x00, 0x00, 0x00, 0x14, 0x00, 0x00, 0x00, 0x00, 0x00, 0x0e, 0x00,
  0x18, 0x00, 0x17, 0x00, 0x10, 0x00, 0x0c, 0x00, 0x08, 0x00, 0x04, 0x00,
  0x0e, 0x00, 0x00, 0x00, 0x03, 0x00, 0x00, 0x00, 0x03, 0x00, 0x00, 0x00,
  0x03, 0x00, 0x00, 0x00, 0x03, 0x00, 0x00, 0x00, 0x00, 0x00, 0x00, 0x01,
  0x01, 0x00, 0x00, 0x00, 0x0b, 0x00, 0x00, 0x00, 0x01, 0x00, 0x00, 0x00,
  0x0a, 0x00, 0x00, 0x00, 0x2c, 0xff, 0xff, 0xff, 0x11, 0x00, 0x00, 0x00,
  0x00, 0x00, 0x00, 0x11, 0x01, 0x00, 0x00, 0x00, 0xcc, 0xd3, 0xff, 0xff,
  0x14, 0x00, 0x00, 0x00, 0x0c, 0x00, 0x00, 0x00, 0x20, 0x00, 0x00, 0x00,
  0x58, 0x00, 0x00, 0x00, 0x40, 0x00, 0x00, 0x00, 0x04, 0x00, 0x00, 0x00,
  0x01, 0x00, 0x00, 0x00, 0x15, 0x00, 0x00, 0x00, 0x01, 0x00, 0x00, 0x00,
  0x08, 0x00, 0x00, 0x00, 0x20, 0x00, 0x00, 0x00, 0x73, 0x65, 0x71, 0x75,
  0x65, 0x6e, 0x74, 0x69, 0x61, 0x6c, 0x2f, 0x6d, 0x61, 0x78, 0x5f, 0x70,
  0x6f, 0x6f, 0x6c, 0x69, 0x6e, 0x67, 0x32, 0x64, 0x2f, 0x4d, 0x61, 0x78,
  0x50, 0x6f, 0x6f, 0x6c, 0x00, 0x00, 0x00, 0x00, 0x04, 0x00, 0x00, 0x00,
  0xff, 0xff, 0xff, 0xff, 0x15, 0x00, 0x00, 0x00, 0x01, 0x00, 0x00, 0x00,
  0x08, 0x00, 0x00, 0x00, 0xd8, 0xd4, 0xff, 0xff, 0x00, 0x00, 0x0e, 0x00,
  0x14, 0x00, 0x00, 0x00, 0x08, 0x00, 0x0c, 0x00, 0x07, 0x00, 0x10, 0x00,
  0x0e, 0x00, 0x00, 0x00, 0x00, 0x00, 0x00, 0x01, 0x30, 0x00, 0x00, 0x00,
  0x24, 0x00, 0x00, 0x00, 0x10, 0x00, 0x00, 0x00, 0x0c, 0x00, 0x10, 0x00,
  0x00, 0x00, 0x04, 0x00, 0x08, 0x00, 0x0f, 0x00, 0x0c, 0x00, 0x00, 0x00,
  0x01, 0x00, 0x00, 0x00, 0x01, 0x00, 0x00, 0x00, 0x00, 0x00, 0x00, 0x01,
  0x01, 0x00, 0x00, 0x00, 0x0a, 0x00, 0x00, 0x00, 0x03, 0x00, 0x00, 0x00,
  0x00, 0x00, 0x00, 0x00, 0x08, 0x00, 0x00, 0x00, 0x01, 0x00, 0x00, 0x00,
  0x0c, 0x00, 0x10, 0x00, 0x0b, 0x00, 0x00, 0x00, 0x0c, 0x00, 0x04, 0x00,
  0x0c, 0x00, 0x00, 0x00, 0x03, 0x00, 0x00, 0x00, 0x00, 0x00, 0x00, 0x03,
  0x01, 0x00, 0x00, 0x00, 0xac, 0xd4, 0xff, 0xff, 0x14, 0x00, 0x00, 0x00,
  0x0b, 0x00, 0x00, 0x00, 0x20, 0x00, 0x00, 0x00, 0xb0, 0x00, 0x00, 0x00,
  0x98, 0x00, 0x00, 0x00, 0x04, 0x00, 0x00, 0x00, 0x01, 0x00, 0x00, 0x00,
  0x40, 0x00, 0x00, 0x00, 0x03, 0x00, 0x00, 0x00, 0x08, 0x00, 0x00, 0x00,
  0x7b, 0x00, 0x00, 0x00, 0x73, 0x65, 0x71, 0x75, 0x65, 0x6e, 0x74, 0x69,
  0x61, 0x6c, 0x2f, 0x63, 0x6f, 0x6e, 0x76, 0x32, 0x64, 0x2f, 0x52, 0x65,
  0x6c, 0x75, 0x3b, 0x73, 0x65, 0x71, 0x75, 0x65, 0x6e, 0x74, 0x69, 0x61,
  0x6c, 0x2f, 0x63, 0x6f, 0x6e, 0x76, 0x32, 0x64, 0x2f, 0x42, 0x69, 0x61,
  0x73, 0x41, 0x64, 0x64, 0x3b, 0x73, 0x65, 0x71, 0x75, 0x65, 0x6e, 0x74,
  0x69, 0x61, 0x6c, 0x2f, 0x63, 0x6f, 0x6e, 0x76, 0x32, 0x64, 0x2f, 0x43,
  0x6f, 0x6e, 0x76, 0x32, 0x44, 0x3b, 0x73, 0x65, 0x71, 0x75, 0x65, 0x6e,
  0x74, 0x69, 0x61, 0x6c, 0x2f, 0x63, 0x6f, 0x6e, 0x76, 0x32, 0x64, 0x2f,
  0x42, 0x69, 0x61, 0x73, 0x41, 0x64, 0x64, 0x2f, 0x52, 0x65, 0x61, 0x64,
  0x56, 0x61, 0x72, 0x69, 0x61, 0x62, 0x6c, 0x65, 0x4f, 0x70, 0x2f, 0x72,
  0x65, 0x73, 0x6f, 0x75, 0x72, 0x63, 0x65, 0x00, 0x04, 0x00, 0x00, 0x00,
  0xff, 0xff, 0xff, 0xff, 0x40, 0x00, 0x00, 0x00, 0x03, 0x00, 0x00, 0x00,
  0x08, 0x00, 0x00, 0x00, 0x00, 0xd5, 0xff, 0xff, 0x0a, 0xd6, 0xff, 0xff,
  0x04, 0x00, 0x00, 0x00, 0x00, 0x08, 0x00, 0x00, 0xf2, 0x9b, 0x87, 0xbe,
  0x09, 0x38, 0xe5, 0xbd, 0x97, 0xe8, 0xc5, 0xbd, 0xfa, 0x05, 0x38, 0xbc,
  0xc1, 0x90, 0x98, 0x3d, 0xe5, 0x68, 0x3f, 0xbe, 0x5d, 0x0f, 0x13, 0xbf,
  0x9e, 0x3e, 0xad, 0xbe, 0x04, 0x79, 0x52, 0x3e, 0xfa, 0xcd, 0x14, 0xbe,
  0x7e, 0x9b, 0x5b, 0xbc, 0xcb, 0x13, 0x87, 0xbe, 0x0d, 0x09, 0x09, 0xbe,
  0x49, 0x6d, 0x0b, 0xbe, 0x18, 0xf2, 0x2b, 0xbe, 0xb4, 0x7c, 0x55, 0xbe,
  0x67, 0x20, 0x67, 0xbe, 0x1c, 0x29, 0x92, 0xbd, 0x26, 0x9d, 0xce, 0x3d,
  0x3c, 0x02, 0x69, 0x3e, 0x04, 0x40, 0x5e, 0xbe, 0xe3, 0xdd, 0xd4, 0x3d,
  0xcf, 0x75, 0x05, 0xbf, 0x7e, 0xc5, 0x1f, 0xbe, 0x3a, 0x2f, 0x8f, 0xbd,
  0xb6, 0x31, 0x08, 0xbe, 0x21, 0x72, 0x1d, 0xbd, 0x23, 0xf7, 0x1f, 0x3d,
  0x32, 0xe0, 0x8b, 0x3d, 0xba, 0xa0, 0x44, 0xbe, 0x82, 0xf0, 0x17, 0x3e,
  0xaa, 0xe4, 0x0b, 0xbe, 0x1e, 0x8f, 0xc5, 0xbe, 0x89, 0x5f, 0xe9, 0xbe,
  0xdf, 0x95, 0x8e, 0x3c, 0xa4, 0x54, 0x51, 0x3e, 0x92, 0xd0, 0x4e, 0xbe,
  0x7d, 0x23, 0x7e, 0xbe, 0x64, 0x5d, 0x02, 0xbe, 0x2f, 0x60, 0x9b, 0xbd,
  0x1b, 0x63, 0x7f, 0xbe, 0xef, 0x71, 0x8b, 0xbe, 0xa5, 0x14, 0x8c, 0xbe,
  0x68, 0x39, 0xfa, 0x3c, 0x79, 0x65, 0x80, 0xbe, 0xdd, 0xa6, 0x97, 0xbd,
  0xa4, 0x84, 0x8d, 0xbe, 0x61, 0x73, 0x8d, 0xbd, 0x81, 0xe9, 0x7d, 0xbd,
  0x51, 0x04, 0x0b, 0xbe, 0x32, 0xdb, 0x5b, 0xbe, 0x99, 0x96, 0x05, 0x3e,
  0x5a, 0xa0, 0x6c, 0xbd, 0xed, 0x3b, 0x19, 0x3e, 0x03, 0x2a, 0xc0, 0xbe,
  0x5b, 0x5a, 0xb2, 0xbd, 0x47, 0x01, 0x39, 0x3f, 0x14, 0xda, 0x52, 0xbe,
  0xbd, 0xc6, 0xfa, 0xbc, 0x6a, 0xd9, 0xed, 0xbc, 0xfd, 0xdb, 0x6c, 0xbd,
  0xe8, 0x18, 0xa9, 0xbd, 0xd4, 0x20, 0x15, 0xbe, 0xee, 0xde, 0x1c, 0xbb,
  0x40, 0x59, 0x0c, 0x3e, 0xeb, 0x2a, 0x5a, 0x3e, 0x31, 0x91, 0xf9, 0x3e,
  0x5b, 0x95, 0xe1, 0xbc, 0x15, 0x3f, 0xcc, 0x3d, 0x0a, 0x21, 0xb8, 0x3d,
  0x28, 0xe4, 0x98, 0xbc, 0xc0, 0xba, 0x26, 0x3f, 0xcc, 0x29, 0x60, 0xbe,
  0x4f, 0x6b, 0xc5, 0xbb, 0x98, 0x84, 0xc7, 0xbd, 0xff, 0x3c, 0x2f, 0xbe,
  0xe6, 0xfa, 0xa5, 0x3d, 0x2e, 0xd4, 0x14, 0xbe, 0x1a, 0x1a, 0x1a, 0xbd,
  0x61, 0x62, 0x2b, 0x3e, 0x4a, 0x09, 0x0b, 0xbf, 0xa8, 0x65, 0xc9, 0xbd,
  0xc4, 0x84, 0x3d, 0xbe, 0x9a, 0x1c, 0x1c, 0xbe, 0x9f, 0x19, 0xbd, 0xbd,
  0x86, 0x30, 0xda, 0xbd, 0x3b, 0x04, 0xb3, 0xbd, 0xb0, 0x29, 0x80, 0x3e,
  0xc2, 0x9f, 0x0d, 0xbf, 0x3e, 0xa5, 0x24, 0xbe, 0xf7, 0xc5, 0x41, 0xbe,
  0x7a, 0x7b, 0xd7, 0xbc, 0xfd, 0x0a, 0x58, 0xbe, 0x16, 0xa2, 0x64, 0xbe,
  0x66, 0x0f, 0xe6, 0xbd, 0x2b, 0xc7, 0x1e, 0x3e, 0x01, 0x64, 0x42, 0x3e,
  0xb8, 0x68, 0x80, 0x3e, 0xab, 0xac, 0xa8, 0xbe, 0x79, 0xac, 0xfe, 0x3c,
  0xc5, 0xfa, 0x3e, 0xbe, 0xb1, 0x56, 0x70, 0xbd, 0x79, 0x8a, 0x74, 0x3e,
  0x15, 0x77, 0xa2, 0x3e, 0x53, 0x97, 0x09, 0x3e, 0x6c, 0x00, 0x67, 0xbd,
  0xa0, 0x23, 0x02, 0xbf, 0x99, 0xf2, 0x55, 0x3d, 0xd8, 0x3c, 0x91, 0xbe,
  0x75, 0xf2, 0x3a, 0xbe, 0xba, 0x53, 0x9b, 0x3d, 0x43, 0x0f, 0xd4, 0x3c,
  0x6d, 0xcb, 0xfc, 0x3d, 0x5b, 0xd3, 0x07, 0xbd, 0x9d, 0x00, 0x4a, 0xbf,
  0xd3, 0x19, 0xdb, 0xbc, 0xee, 0xc2, 0x8d, 0xbe, 0xec, 0x0f, 0x5f, 0x3e,
  0x05, 0x5e, 0x9b, 0x3d, 0x5d, 0xac, 0x19, 0x3d, 0x9d, 0x88, 0xc4, 0xbd,
  0x01, 0x2b, 0x99, 0x3d, 0x0f, 0x20, 0x0f, 0xbf, 0x2a, 0x6a, 0x29, 0xbd,
  0x3d, 0x7b, 0x9a, 0xbe, 0x73, 0x9b, 0x51, 0xbd, 0xd6, 0x7e, 0xd2, 0xbd,
  0x1b, 0xb7, 0x07, 0xbe, 0x1d, 0x27, 0xfe, 0xbe, 0x3a, 0x8b, 0xb6, 0xbd,
  0x37, 0x25, 0xe0, 0xbd, 0xde, 0x96, 0x1f, 0xbd, 0xa2, 0x94, 0xe4, 0xbe,
  0x8d, 0xc0, 0x88, 0xbe, 0x5e, 0x00, 0x48, 0xbe, 0xd1, 0x94, 0x66, 0x3e,
  0xa3, 0x20, 0x9f, 0x3e, 0xb7, 0x2b, 0x9f, 0xbd, 0x78, 0x27, 0x38, 0xbf,
  0x00, 0x3d, 0xc9, 0x3e, 0xb8, 0x4f, 0x01, 0xbf, 0x01, 0x7e, 0x14, 0x3e,
  0x56, 0xb8, 0x12, 0xbf, 0x84, 0xdf, 0x3e, 0x3e, 0x26, 0x97, 0xf2, 0x3d,
  0x7e, 0x50, 0xca, 0x3c, 0x5e, 0xdc, 0x9d, 0xbb, 0x81, 0x84, 0x96, 0xbe,
  0x68, 0x12, 0x5c, 0xbd, 0xf4, 0x79, 0x23, 0x3e, 0xbd, 0x1b, 0x17, 0xbe,
  0x60, 0x1a, 0x0b, 0xbf, 0xd7, 0x14, 0xba, 0x3d, 0x3d, 0x38, 0xeb, 0xbc,
  0xf3, 0xec, 0xa8, 0x3d, 0x35, 0xde, 0xd3, 0xbe, 0xa3, 0xbc, 0x45, 0x3d,
  0x5a, 0xe2, 0xf7, 0xbd, 0xba, 0xe1, 0x2c, 0x3e, 0xd8, 0x0d, 0x8b, 0x3d,
  0x8c, 0x7f, 0x9f, 0xbd, 0x7c, 0x54, 0xd1, 0xbd, 0x63, 0x5a, 0xca, 0xbd,
  0xec, 0x25, 0xb8, 0xbc, 0xf7, 0x77, 0x68, 0x3c, 0xa4, 0xc7, 0xa5, 0xbc,
  0xc2, 0xb4, 0x70, 0xbd, 0xed, 0xc2, 0x05, 0xbe, 0x41, 0x89, 0xcc, 0xbd,
  0xa9, 0xc4, 0xdf, 0x3e, 0xa5, 0x3c, 0x5a, 0x3d, 0x08, 0x2a, 0x59, 0xbd,
  0xa6, 0x74, 0xb8, 0xbd, 0x47, 0xbb, 0xa7, 0xbd, 0x57, 0xa3, 0xe5, 0x3c,
  0xd9, 0xa2, 0xa7, 0x3d, 0x30, 0xc0, 0x28, 0x3e, 0xe1, 0x19, 0xbf, 0x3d,
  0x99, 0x1f, 0xaa, 0xbd, 0x3b, 0xa0, 0xa6, 0xbd, 0xc9, 0xec, 0x72, 0xbd,
  0xe8, 0x3a, 0x8e, 0x3e, 0xb3, 0x9e, 0xed, 0xbc, 0x90, 0xfb, 0x80, 0x3d,
  0xa4, 0x41, 0x19, 0x3e, 0xb9, 0xbe, 0xa9, 0xbc, 0xf7, 0xe7, 0xef, 0x3c,
  0x9b, 0x57, 0xac, 0xbd, 0x6b, 0x3a, 0x2c, 0xbd, 0x5c, 0x08, 0x49, 0x3e,
  0xf6, 0xf6, 0x27, 0xbd, 0xa0, 0xaa, 0x1f, 0xbe, 0xc6, 0xc8, 0x39, 0xbe,
  0x11, 0xf2, 0x35, 0xbe, 0x63, 0x60, 0xe6, 0xbd, 0x13, 0x32, 0x0f, 0x3e,
  0x7b, 0xf2, 0x3b, 0xbe, 0xa1, 0x77, 0xd1, 0xbc, 0xb5, 0x64, 0x3a, 0xbd,
  0x9c, 0xa6, 0x27, 0x3e, 0x1a, 0x24, 0xe6, 0xbd, 0x65, 0xe7, 0x20, 0xbe,
  0xfb, 0xc4, 0xd5, 0xbe, 0xe9, 0xbe, 0x91, 0x3d, 0x19, 0x08, 0xb1, 0xbe,
  0xb6, 0x99, 0x32, 0x3d, 0x15, 0x80, 0x3b, 0xbe, 0x78, 0x36, 0x19, 0x3f,
  0xcb, 0x8b, 0xd2, 0x3e, 0x7b, 0x47, 0x2a, 0xbe, 0x4e, 0x91, 0x2b, 0xbe,
  0x19, 0x75, 0x12, 0x3e, 0x86, 0xd2, 0xab, 0xbd, 0x0c, 0x26, 0x28, 0xbe,
  0xda, 0x24, 0xee, 0xbd, 0x78, 0x54, 0x2b, 0x3c, 0xad, 0x6d, 0x26, 0xbe,
  0x0e, 0x14, 0x8e, 0xbd, 0x58, 0x36, 0xeb, 0xbc, 0xc1, 0x4f, 0x6e, 0x3c,
  0x96, 0x0b, 0x36, 0x3e, 0x28, 0xb2, 0x9b, 0xbd, 0xd6, 0xc1, 0xab, 0x3e,
  0x6b, 0xa2, 0x64, 0xbd, 0x39, 0x8e, 0x81, 0xbe, 0xde, 0xd7, 0x92, 0xbd,
  0x70, 0x7e, 0xd0, 0xbd, 0xd3, 0xa4, 0xac, 0xbe, 0xac, 0x79, 0x0c, 0xbe,
  0x31, 0x25, 0xc2, 0xbe, 0x9e, 0xb1, 0x52, 0xbd, 0xd7, 0x21, 0x49, 0xbf,
  0xa7, 0x7c, 0xc6, 0xbd, 0x0e, 0x9e, 0x1f, 0xbd, 0xd2, 0x58, 0x46, 0xbd,
  0x92, 0x2e, 0xf2, 0xbe, 0x6d, 0xec, 0xe7, 0xbd, 0x76, 0xc6, 0xf8, 0xbe,
  0x27, 0xde, 0x40, 0xbd, 0xfd, 0xd2, 0x3d, 0xbe, 0x04, 0xf1, 0xd3, 0x3e,
  0xc7, 0x99, 0x1d, 0xbd, 0xc7, 0xca, 0x43, 0x3a, 0x8c, 0xa3, 0xc9, 0xbc,
  0x3e, 0xb9, 0xdb, 0xbc, 0x3a, 0x93, 0x68, 0x3d, 0x16, 0x26, 0xff, 0xbc,
  0x57, 0x48, 0x17, 0x3f, 0x95, 0x09, 0x8d, 0x3d, 0x5e, 0xff, 0x35, 0x3d,
  0x29, 0x28, 0x54, 0x3e, 0x83, 0x3f, 0x01, 0xbe, 0x24, 0x23, 0xcc, 0x3d,
  0xe8, 0x86, 0xa3, 0x3e, 0xa3, 0xa7, 0xa6, 0xbc, 0x87, 0xb9, 0x99, 0x3e,
  0x63, 0xa3, 0xb6, 0xbe, 0x43, 0x4a, 0x01, 0xbe, 0x83, 0x3f, 0x22, 0xbe,
  0x3d, 0x7d, 0x4b, 0xbe, 0xcf, 0x33, 0x19, 0xbe, 0x3a, 0x8f, 0x1b, 0xbe,
  0x04, 0x3e, 0xae, 0xbd, 0x1f, 0xef, 0xa1, 0xbc, 0xd2, 0xe4, 0x6e, 0x3d,
  0xcf, 0x57, 0x9d, 0xbd, 0x8e, 0x5e, 0xd4, 0xbd, 0x20, 0x3e, 0xf1, 0xbd,
  0xbb, 0xea, 0xfc, 0xbd, 0xeb, 0x93, 0x20, 0xbd, 0x8f, 0xcd, 0x0f, 0xbd,
  0x42, 0x93, 0x87, 0xbd, 0x96, 0xbf, 0x36, 0xbb, 0xa0, 0x38, 0x7e, 0xbd,
  0x51, 0xac, 0x3d, 0xbd, 0x7f, 0x67, 0xc7, 0xbd, 0xdf, 0x50, 0xa1, 0xbd,
  0x73, 0x0c, 0x66, 0x3d, 0x7b, 0x48, 0x21, 0x3c, 0x38, 0xde, 0x6f, 0xbe,
  0x77, 0x38, 0xfb, 0x3e, 0x92, 0x00, 0x77, 0x3e, 0x77, 0x2f, 0x48, 0x3e,
  0x34, 0xdc, 0x2f, 0xbd, 0xc8, 0x2b, 0xc8, 0x3d, 0xfd, 0x94, 0x56, 0xbc,
  0xf9, 0xbd, 0xe0, 0xba, 0x15, 0x79, 0x07, 0x3d, 0x78, 0xf1, 0xb8, 0xbe,
  0x2b, 0x99, 0x9d, 0xbe, 0x34, 0x4e, 0x90, 0xbe, 0x96, 0x44, 0x27, 0xbd,
  0xec, 0xa6, 0xb6, 0xbe, 0xd8, 0x3e, 0x97, 0xbe, 0xdc, 0xbc, 0x1d, 0xbe,
  0x4f, 0xef, 0x2a, 0xbe, 0x43, 0x9a, 0x6c, 0xbc, 0x88, 0x87, 0x72, 0xbc,
  0xe0, 0xb6, 0xf5, 0x3d, 0x34, 0x6a, 0x31, 0xbe, 0x84, 0x2c, 0x19, 0x3c,
  0xfd, 0x94, 0x92, 0xbe, 0xd5, 0x81, 0x12, 0xbb, 0xdd, 0xe0, 0x40, 0x3d,
  0x27, 0xf7, 0x6d, 0xbe, 0x87, 0xc6, 0xb4, 0xbd, 0x2a, 0xb7, 0x0f, 0x3e,
  0x8d, 0xff, 0x89, 0xbd, 0xd2, 0xc6, 0x1d, 0xbd, 0x1c, 0x42, 0xcb, 0xbe,
  0x56, 0xaf, 0xf5, 0xbc, 0x33, 0x90, 0x1f, 0x3e, 0x90, 0xda, 0x36, 0xbf,
  0x17, 0xcd, 0xd2, 0xbd, 0x17, 0x3f, 0x21, 0xbe, 0xa7, 0xf0, 0x84, 0x3e,
  0xd3, 0xd9, 0x42, 0xbe, 0xa9, 0x54, 0xf9, 0x3e, 0x81, 0xbc, 0xb1, 0xbd,
  0x13, 0x14, 0xf7, 0x3e, 0x69, 0xdd, 0x1b, 0x3d, 0xbe, 0x95, 0x27, 0xbe,
  0xbb, 0xe5, 0x85, 0x3e, 0x67, 0xee, 0x11, 0x3e, 0xef, 0x0a, 0x88, 0x3c,
  0x80, 0x3e, 0x16, 0xbe, 0x82, 0x21, 0x67, 0xbe, 0x08, 0xab, 0x9b, 0x3e,
  0xd8, 0x7a, 0x77, 0x3e, 0xfa, 0x69, 0x43, 0xbe, 0x3c, 0x9c, 0x18, 0xbe,
  0x92, 0x13, 0x85, 0x3e, 0xb4, 0xcf, 0x82, 0xbe, 0xa3, 0xa7, 0xd1, 0x3e,
  0x9e, 0xe1, 0x97, 0xbe, 0x9f, 0xd1, 0x21, 0x3e, 0xcf, 0x1e, 0xbb, 0x3d,
  0xa2, 0xbf, 0xec, 0xbd, 0x88, 0xdb, 0x1c, 0x3e, 0xc1, 0xcd, 0x90, 0x3b,
  0xa6, 0xd9, 0xba, 0xbc, 0xd6, 0x67, 0xa1, 0x3c, 0x57, 0xca, 0x51, 0xbe,
  0x14, 0x68, 0xf0, 0x3d, 0x69, 0xb2, 0x7d, 0xbc, 0x3a, 0xda, 0x08, 0xbe,
  0xfe, 0xb3, 0xe1, 0x3e, 0x58, 0xcf, 0xe6, 0xbb, 0x49, 0xa8, 0x02, 0xbe,
  0x96, 0xd1, 0xfa, 0xbd, 0x68, 0x15, 0x6b, 0xbe, 0xf6, 0xa5, 0x03, 0x3e,
  0xb4, 0xae, 0xf1, 0xbe, 0xc6, 0xa4, 0x92, 0xbe, 0x50, 0x32, 0x7a, 0x3d,
  0x07, 0xc0, 0xb6, 0xbd, 0x34, 0x94, 0xb3, 0xbe, 0x8a, 0xb3, 0x95, 0xbe,
  0x4f, 0xbb, 0xf5, 0xbd, 0x2e, 0xda, 0x39, 0xbe, 0xaa, 0x50, 0x84, 0xbd,
  0x62, 0x2c, 0x88, 0xbe, 0xf2, 0x41, 0x1b, 0xbe, 0x53, 0x1b, 0xe2, 0x3e,
  0xc4, 0xa7, 0xc8, 0xbe, 0xf4, 0x15, 0x9d, 0x3c, 0x41, 0x00, 0x22, 0xbe,
  0xca, 0x12, 0xf9, 0x3e, 0xe6, 0x11, 0xd0, 0xbd, 0x13, 0x5e, 0x4d, 0xbe,
  0x9f, 0xc6, 0x69, 0xbc, 0x12, 0x2f, 0x8b, 0x3d, 0x21, 0x90, 0xa0, 0xbe,
  0x01, 0x69, 0x94, 0x3e, 0x37, 0x84, 0x49, 0xbe, 0xd3, 0x97, 0x31, 0xbe,
  0xee, 0xaf, 0x7a, 0x3e, 0x2d, 0x87, 0xba, 0xbd, 0x7b, 0x29, 0xc1, 0x3e,
  0xc9, 0x9a, 0xba, 0x3c, 0x85, 0xa0, 0x45, 0xbd, 0x4f, 0x07, 0x3a, 0xbb,
  0x6b, 0xec, 0x60, 0x3d, 0x76, 0x45, 0x7c, 0xbd, 0x51, 0x50, 0xcf, 0x3c,
  0x7c, 0x3f, 0x2d, 0xbe, 0x62, 0xc9, 0xfa, 0xbd, 0xd9, 0x3d, 0x42, 0xbe,
  0x5b, 0xa3, 0xb2, 0x3a, 0x58, 0x06, 0x80, 0xbd, 0xbc, 0x62, 0x4d, 0x3d,
  0xd8, 0x9f, 0x78, 0xbd, 0x73, 0x64, 0xa5, 0xbd, 0x68, 0x2c, 0x74, 0xbe,
  0x83, 0x95, 0xe4, 0xbd, 0x58, 0x4a, 0x8d, 0x3e, 0x09, 0x25, 0xeb, 0xbc,
  0xb5, 0xbe, 0x22, 0xbe, 0xff, 0x22, 0x86, 0x3c, 0xd4, 0xa1, 0x23, 0xbe,
  0xbd, 0xbd, 0x54, 0x3d, 0x36, 0xdc, 0x1b, 0xbe, 0x59, 0xb2, 0x00, 0x3d,
  0xfa, 0x40, 0x86, 0x3e, 0x24, 0x11, 0x98, 0xba, 0xc1, 0x98, 0x39, 0xbe,
  0xa4, 0x6d, 0x11, 0x3e, 0xe8, 0x11, 0xa5, 0x3e, 0x61, 0x4a, 0x7b, 0x3d,
  0x0b, 0xf1, 0x2c, 0xbe, 0x4f, 0x93, 0xf5, 0xbe, 0xeb, 0xfc, 0x63, 0x3e,
  0x24, 0xd1, 0xc3, 0xbd, 0xa1, 0xea, 0xb7, 0xbd, 0xa4, 0x7c, 0x24, 0xbd,
  0xed, 0x70, 0x31, 0x3e, 0x02, 0xf3, 0x79, 0xbe, 0x7b, 0x52, 0x38, 0xbe,
  0xa6, 0xb1, 0xfb, 0xbe, 0xb3, 0xe8, 0x3b, 0x3e, 0x01, 0xa8, 0xd1, 0xbe,
  0xc9, 0x71, 0x5f, 0xbd, 0x61, 0x6a, 0x6f, 0xbe, 0xc4, 0x48, 0x59, 0x3e,
  0xf3, 0x3f, 0x67, 0x3d, 0x17, 0x9a, 0x26, 0xbe, 0x79, 0xe9, 0xb0, 0xbe,
  0x3d, 0xc1, 0x8c, 0x3d, 0x87, 0x30, 0xe5, 0xbe, 0xe5, 0x41, 0xcc, 0x3e,
  0x61, 0xdf, 0xaf, 0xbe, 0xb5, 0x18, 0x3d, 0xbe, 0x37, 0x15, 0x6b, 0x3e,
  0x64, 0x11, 0xb8, 0x3c, 0x34, 0x2f, 0xb9, 0x3c, 0x83, 0xaa, 0xce, 0xbe,
  0x78, 0x56, 0x3f, 0x3c, 0x35, 0x89, 0x06, 0x3c, 0xf9, 0x8a, 0x78, 0x3d,
  0xc6, 0xfc, 0xf7, 0xbe, 0xb6, 0xc3, 0x2c, 0xbd, 0xe9, 0x98, 0xcf, 0x3d,
  0x32, 0x0c, 0x4b, 0x3e, 0x97, 0xbb, 0xdb, 0xbe, 0x26, 0x95, 0x46, 0x3d,
  0x04, 0xf0, 0x8b, 0xbe, 0x16, 0xdd, 0x20, 0x3d, 0x60, 0x42, 0x11, 0xbd,
  0x41, 0x38, 0xcd, 0xbe, 0xd8, 0x46, 0xf5, 0xbd, 0xe8, 0x59, 0x92, 0xbe,
  0x06, 0x51, 0x4a, 0xbe, 0x8d, 0xcf, 0x76, 0xbe, 0x78, 0xbe, 0x95, 0xbe,
  0xc7, 0x7e, 0x17, 0xbd, 0xd3, 0x1c, 0xbb, 0xbe, 0xf0, 0x3c, 0x32, 0xbf,
  0xc0, 0x22, 0x22, 0xbd, 0x44, 0x7f, 0xb8, 0xbd, 0xe4, 0xe8, 0x60, 0x3c,
  0x9c, 0x0b, 0xa8, 0xbe, 0xed, 0xa4, 0x2d, 0xbe, 0x22, 0x32, 0xe2, 0xbb,
  0x73, 0x37, 0xbf, 0x3e, 0x28, 0xe2, 0x1b, 0x3f, 0x07, 0xa0, 0x06, 0x3d,
  0xb9, 0x91, 0xe8, 0xbe, 0xc9, 0x16, 0x60, 0xbd, 0x94, 0x12, 0x4f, 0xbe,
  0x6c, 0x30, 0x3d, 0x3e, 0xc5, 0x7e, 0x98, 0xbe, 0x36, 0xea, 0x65, 0x3e,
  0xac, 0x2f, 0xa7, 0xbd, 0xea, 0xd9, 0x91, 0xbc, 0xe3, 0xb9, 0x47, 0xbe,
  0x51, 0xc0, 0x67, 0xbd, 0xd8, 0xb9, 0x1c, 0xbd, 0xc8, 0xf2, 0x24, 0x3b,
  0x37, 0xa8, 0x09, 0xbe, 0xf6, 0x25, 0x9d, 0xbe, 0xf6, 0x24, 0x21, 0xbe,
  0x3d, 0x10, 0xc7, 0xbe, 0x54, 0x2b, 0x8b, 0xbe, 0x4a, 0x8c, 0xd5, 0xbe,
  0x05, 0x1a, 0x07, 0xbf, 0xc3, 0x11, 0x10, 0xbf, 0x8e, 0xf7, 0x32, 0xbe,
  0x2d, 0xc8, 0xda, 0xbe, 0x35, 0x45, 0x24, 0x3e, 0xd1, 0xab, 0x41, 0x3e,
  0x63, 0x75, 0xbb, 0x3d, 0xcb, 0xb7, 0x0a, 0xbd, 0x8b, 0x68, 0xc6, 0x3d,
  0x87, 0x03, 0xa2, 0xbe, 0x4c, 0x50, 0xb8, 0x3d, 0x86, 0xce, 0x19, 0xbe,
  0xc2, 0xa9, 0x59, 0xbe, 0x28, 0x1b, 0xb2, 0x3d, 0x2d, 0xf6, 0x28, 0xbd,
  0x14, 0x1b, 0xbc, 0x3c, 0x2d, 0x20, 0x8c, 0xbd, 0xda, 0x6c, 0x08, 0xbe,
  0x3a, 0x0c, 0x3d, 0x3d, 0xc3, 0xcb, 0x94, 0xbe, 0x41, 0x4f, 0x2e, 0x3e,
  0xa9, 0xa3, 0x37, 0x3e, 0xce, 0xe6, 0x1f, 0xbe, 0x28, 0x03, 0x17, 0x3b,
  0x8c, 0x52, 0x31, 0x3c, 0xc4, 0x67, 0x72, 0x3e, 0xd6, 0x7d, 0x5a, 0x3d,
  0x1d, 0xb7, 0xb3, 0xbe, 0xe2, 0xdd, 0xff, 0xff, 0x10, 0x00, 0x00, 0x00,
  0x0a, 0x00, 0x00, 0x00, 0x1c, 0x00, 0x00, 0x00, 0x38, 0x00, 0x00, 0x00,
  0x04, 0x00, 0x00, 0x00, 0x10, 0x00, 0x00, 0x00, 0x04, 0x00, 0x00, 0x00,
  0x01, 0x00, 0x00, 0x00, 0x08, 0x00, 0x00, 0x00, 0x1a, 0x00, 0x00, 0x00,
  0x73, 0x65, 0x71, 0x75, 0x65, 0x6e, 0x74, 0x69, 0x61, 0x6c, 0x2f, 0x63,
  0x6f, 0x6e, 0x76, 0x32, 0x64, 0x5f, 0x31, 0x2f, 0x43, 0x6f, 0x6e, 0x76,
  0x32, 0x44, 0x00, 0x00, 0x58, 0xdd, 0xff, 0xff, 0x62, 0xde, 0xff, 0xff,
  0x04, 0x00, 0x00, 0x00, 0x80, 0x01, 0x00, 0x00, 0x33, 0xc1, 0xe9, 0x3e,
  0x1c, 0x9b, 0xef, 0x3d, 0xe1, 0x17, 0xc2, 0xbc, 0xfc, 0x2a, 0x9e, 0x3d,
  0xed, 0x9f, 0xa5, 0x3d, 0x9d, 0x89, 0x17, 0x3e, 0x16, 0xf9, 0x9b, 0xbe,
  0x0a, 0x30, 0xe0, 0xbd, 0x50, 0xeb, 0x21, 0xbe, 0x7a, 0x9a, 0x72, 0xbe,
  0x2a, 0x70, 0x4a, 0xbe, 0x4d, 0xde, 0xaf, 0x3d, 0x22, 0xb4, 0x02, 0x3d,
  0x14, 0x76, 0x47, 0xbe, 0x31, 0x48, 0x52, 0x3e, 0x41, 0x4f, 0x3c, 0x3d,
  0xe5, 0x5f, 0xae, 0xbd, 0x2c, 0x3f, 0x42, 0x3e, 0xf1, 0x53, 0xf0, 0xbd,
  0x96, 0x10, 0xb3, 0xbb, 0x36, 0x2b, 0x50, 0x3e, 0xc3, 0x8b, 0xb0, 0xbd,
  0x5f, 0x3c, 0xed, 0x3d, 0x9c, 0x91, 0x8d, 0x3d, 0x3b, 0x09, 0x38, 0xbd,
  0x83, 0x43, 0x17, 0x3d, 0xf3, 0xfd, 0x92, 0xbe, 0x76, 0xc5, 0x16, 0xbe,
  0xdc, 0xb5, 0x43, 0x3d, 0x6d, 0x0b, 0x54, 0xbe, 0x68, 0x43, 0x28, 0x3e,
  0xa6, 0x52, 0xc8, 0xbe, 0x56, 0x16, 0x06, 0x3e, 0x2c, 0x0a, 0xf7, 0xbd,
  0xb9, 0x69, 0x82, 0xbc, 0xf2, 0xb1, 0xd9, 0x3d, 0xa5, 0x5d, 0xd4, 0xbd,
  0x79, 0x0f, 0xbb, 0x3d, 0xfa, 0xad, 0x46, 0xbe, 0xa0, 0x42, 0x28, 0x3e,
  0x67, 0xec, 0x2d, 0xbe, 0xfb, 0x5f, 0x39, 0xbe, 0x74, 0x20, 0x3f, 0x3e,
  0x35, 0xcf, 0xd0, 0x3d, 0x37, 0x44, 0x8d, 0x3c, 0x24, 0xb6, 0xb4, 0xbb,
  0x93, 0x66, 0x6c, 0x3e, 0x18, 0x34, 0xa4, 0x3e, 0x4c, 0x52, 0x23, 0xbe,
  0xe2, 0x0d, 0x81, 0xbe, 0xfb, 0x53, 0x56, 0x3e, 0xe5, 0x4c, 0xc6, 0x3d,
  0xda, 0xef, 0xc6, 0xbd, 0xbf, 0x82, 0x0e, 0x3e, 0x3c, 0x6c, 0x58, 0xbe,
  0x74, 0x9c, 0xbc, 0x3d, 0x12, 0x0b, 0xc4, 0xbd, 0xeb, 0xc7, 0x06, 0xbd,
  0x17, 0xed, 0x00, 0x3d, 0x09, 0xb0, 0x11, 0x3d, 0xa1, 0xf8, 0xfc, 0xbd,
  0x80, 0x8a, 0x64, 0xbe, 0xd7, 0x12, 0xd8, 0xbd, 0xd5, 0x25, 0x8a, 0x3e,
  0x35, 0xb3, 0xcf, 0x3e, 0x98, 0xed, 0xb6, 0x3e, 0x18, 0x4a, 0xa4, 0x3d,
  0x9c, 0xca, 0x11, 0xbd, 0x81, 0x90, 0x2d, 0x3e, 0x68, 0xe3, 0x74, 0xbe,
  0x3d, 0x93, 0x1e, 0xbd, 0x1f, 0x92, 0xa8, 0xbd, 0xf3, 0x36, 0x6c, 0xbe,
  0xef, 0x54, 0x00, 0xbe, 0x8a, 0xa7, 0x66, 0xbe, 0x41, 0x04, 0xee, 0xbd,
  0x8c, 0x6f, 0xa0, 0x3c, 0x73, 0x90, 0x9a, 0xbd, 0xa1, 0x49, 0xd9, 0xbd,
  0xc9, 0x4f, 0x3c, 0x3d, 0xa9, 0x4b, 0x22, 0xbd, 0xd9, 0x47, 0x0d, 0xbe,
  0x74, 0x43, 0x2e, 0x3d, 0x34, 0x4f, 0x30, 0xbe, 0x26, 0xc1, 0x27, 0xbe,
  0x15, 0x48, 0x19, 0x3c, 0x12, 0x9e, 0x32, 0x3d, 0x48, 0x32, 0xe5, 0xbe,
  0xdd, 0xf1, 0x34, 0xbe, 0xf5, 0xe1, 0xac, 0xbd, 0xd1, 0x5d, 0x2a, 0x3e,
  0x8a, 0x4f, 0xda, 0xbb, 0xaf, 0x81, 0x07, 0x3c, 0x90, 0x29, 0xe9, 0x3e,
  0x47, 0xee, 0x93, 0x3e, 0x39, 0xef, 0x85, 0x3d, 0xba, 0xdf, 0xff, 0xff,
  0x10, 0x00, 0x00, 0x00, 0x09, 0x00, 0x00, 0x00, 0x1c, 0x00, 0x00, 0x00,
  0x38, 0x00, 0x00, 0x00, 0x04, 0x00, 0x00, 0x00, 0x08, 0x00, 0x00, 0x00,
  0x04, 0x00, 0x00, 0x00, 0x03, 0x00, 0x00, 0x00, 0x01, 0x00, 0x00, 0x00,
  0x18, 0x00, 0x00, 0x00, 0x73, 0x65, 0x71, 0x75, 0x65, 0x6e, 0x74, 0x69,
  0x61, 0x6c, 0x2f, 0x63, 0x6f, 0x6e, 0x76, 0x32, 0x64, 0x2f, 0x43, 0x6f,
  0x6e, 0x76, 0x32, 0x44, 0x00, 0x00, 0x00, 0x00, 0x30, 0xdf, 0xff, 0xff,
  0x3a, 0xe0, 0xff, 0xff, 0x04, 0x00, 0x00, 0x00, 0x00, 0x01, 0x00, 0x00,
  0xe5, 0xd2, 0x15, 0x3e, 0x37, 0xa7, 0x16, 0x3f, 0x5b, 0x2e, 0x98, 0x3c,
  0xce, 0x2f, 0x67, 0xbd, 0x1a, 0x9e, 0x74, 0xbe, 0x50, 0xef, 0x6d, 0xbe,
  0xd1, 0x86, 0x8c, 0xbe, 0x1e, 0xcb, 0xbe, 0x3e, 0x99, 0x65, 0x7c, 0xbd,
  0xba, 0x5b, 0x75, 0xbe, 0xaf, 0x8a, 0x9a, 0xbd, 0x92, 0x5c, 0xc5, 0x3e,
  0x12, 0x63, 0xba, 0x3e, 0x3f, 0xad, 0xff, 0x3d, 0xbf, 0xc5, 0xae, 0x3e,
  0xe6, 0x28, 0x10, 0x3e, 0x40, 0x35, 0x3c, 0x3e, 0xf4, 0x04, 0x60, 0xbe,
  0xda, 0x51, 0xd4, 0xbe, 0x93, 0x21, 0x6d, 0xbe, 0x4d, 0x7b, 0x7c, 0x3e,
  0xa8, 0x8a, 0x6b, 0xbe, 0x20, 0xe9, 0xa6, 0xbe, 0xd3, 0x65, 0xc2, 0x3e,
  0xcb, 0x33, 0x4e, 0x3d, 0x08, 0x79, 0x75, 0xbe, 0x76, 0x91, 0x7b, 0xbd,
  0x69, 0xb3, 0xa4, 0x3e, 0x2f, 0x6e, 0x9d, 0x3e, 0xf2, 0x00, 0x2e, 0x3e,
  0xd4, 0x91, 0xc4, 0xbe, 0x30, 0x7d, 0xd2, 0xbe, 0x75, 0x24, 0x04, 0x3e,
  0x3e, 0x39, 0x15, 0xbf, 0x5d, 0xc0, 0xd5, 0xbe, 0xeb, 0x6f, 0x14, 0x3e,
  0x6b, 0xe3, 0x0a, 0xbe, 0x51, 0x38, 0xd3, 0xbe, 0x4d, 0xed, 0x17, 0xbf,
  0x59, 0x6c, 0x93, 0x3e, 0xbf, 0xaa, 0xf8, 0x3d, 0xec, 0xf0, 0x22, 0xbf,
  0xdf, 0x50, 0xef, 0x3b, 0xfe, 0x4b, 0x36, 0xbe, 0x26, 0xe2, 0x1c, 0xbf,
  0xdc, 0x5d, 0x46, 0xbd, 0x72, 0x03, 0x09, 0xbf, 0xe6, 0xf5, 0x47, 0xbf,
  0x2b, 0x3b, 0x0b, 0x3e, 0xb3, 0x82, 0x3e, 0xbd, 0xf0, 0x46, 0x66, 0xbf,
  0x64, 0x17, 0x84, 0x3e, 0x8b, 0xcf, 0xa6, 0x3e, 0x83, 0x02, 0x99, 0xbe,
  0x69, 0xd3, 0x92, 0xbe, 0x29, 0x90, 0xd9, 0x3e, 0xa6, 0x08, 0x16, 0x3d,
  0x6a, 0xec, 0xca, 0xbc, 0x12, 0xd8, 0x8b, 0xbd, 0x6e, 0xf0, 0x9d, 0x3e,
  0x70, 0x76, 0x99, 0x3e, 0xbd, 0x10, 0x03, 0x3e, 0x4a, 0x76, 0x0b, 0xbe,
  0x25, 0xb6, 0x32, 0xbf, 0x12, 0xe1, 0xff, 0xff, 0x10, 0x00, 0x00, 0x00,
  0x08, 0x00, 0x00, 0x00, 0x14, 0x00, 0x00, 0x00, 0x30, 0x00, 0x00, 0x00,
  0x02, 0x00, 0x00, 0x00, 0x04, 0x00, 0x00, 0x00, 0x10, 0x00, 0x00, 0x00,
  0x19, 0x00, 0x00, 0x00, 0x73, 0x65, 0x71, 0x75, 0x65, 0x6e, 0x74, 0x69,
  0x61, 0x6c, 0x2f, 0x64, 0x65, 0x6e, 0x73, 0x65, 0x5f, 0x31, 0x2f, 0x4d,
  0x61, 0x74, 0x4d, 0x75, 0x6c, 0x00, 0x00, 0x00, 0x80, 0xe0, 0xff, 0xff,
  0x8a, 0xe1, 0xff, 0xff, 0x04, 0x00, 0x00, 0x00, 0x00, 0x1c, 0x00, 0x00,
  0x76, 0x9a, 0x83, 0xbe, 0x94, 0x9c, 0xac, 0x3e, 0x00, 0x95, 0x50, 0x3c,
  0x34, 0xa1, 0x3d, 0x3e, 0xda, 0x50, 0xf4, 0x3d, 0x54, 0x2f, 0x7a, 0xbd,
  0xe1, 0xac, 0xe4, 0x3d, 0x90, 0xbe, 0x0b, 0xbe, 0xf7, 0x1d, 0x1f, 0xbd,
  0x2e, 0xfb, 0x45, 0x3e, 0xd6, 0x29, 0x39, 0x3e, 0x0c, 0x90, 0xf9, 0x3c,
  0xd8, 0x5d, 0x77, 0xbc, 0xe7, 0xdf, 0xe2, 0x3d, 0x7d, 0xed, 0xad, 0x3e,
  0xb3, 0x95, 0x86, 0xbe, 0x96, 0x3d, 0x32, 0xbc, 0xed, 0xfc, 0x4f, 0xbe,
  0x0e, 0x60, 0x65, 0xb9, 0xcd, 0x59, 0x14, 0xbe, 0xb5, 0x45, 0x2a, 0x3d,
  0x94, 0x7a, 0xcf, 0xbd, 0xcf, 0xa4, 0x5c, 0xbe, 0xe2, 0x61, 0xcc, 0x3c,
  0x41, 0x8c, 0x6e, 0xbe, 0xa3, 0xce, 0x39, 0x3e, 0x5b, 0xd8, 0xc7, 0xbe,
  0x8f, 0xe2, 0x93, 0xbe, 0x99, 0xba, 0x93, 0xbc, 0x84, 0xb7, 0x41, 0x3e,
  0x0b, 0x68, 0x8c, 0xbd, 0x8e, 0xbc, 0x78, 0xbe, 0x7c, 0xca, 0x42, 0x3e,
  0x3a, 0x76, 0x78, 0xbd, 0x1c, 0x44, 0x0d, 0xbd, 0xf6, 0x69, 0x07, 0xbe,
  0x02, 0x81, 0x85, 0xbe, 0x88, 0xb3, 0xa7, 0xbd, 0x05, 0x6e, 0xd7, 0xbe,
  0x86, 0x55, 0x53, 0xbe, 0x0f, 0x41, 0x03, 0xbf, 0xe6, 0x6e, 0xa7, 0xbd,
  0x2c, 0xb5, 0xde, 0xbe, 0xeb, 0x01, 0x4a, 0xbe, 0x08, 0x2e, 0x84, 0xbd,
  0x37, 0x70, 0x1b, 0xbe, 0x18, 0xf9, 0xb8, 0xbd, 0x80, 0xde, 0x19, 0x3d,
  0xfd, 0xfe, 0x37, 0x3e, 0x48, 0xcb, 0x5c, 0xbe, 0xae, 0xc3, 0x76, 0xbe,
  0x84, 0x2b, 0x58, 0xbd, 0xc7, 0x2a, 0xb4, 0x3d, 0x1e, 0x37, 0x63, 0xbd,
  0x95, 0xcc, 0xb4, 0xbe, 0xa0, 0xb2, 0xaf, 0xbe, 0xb8, 0x7b, 0xa2, 0xbe,
  0x2f, 0xbb, 0x00, 0x3e, 0x83, 0xee, 0xe1, 0xbe, 0xad, 0x5a, 0x92, 0xbd,
  0x15, 0x3e, 0x5c, 0xbe, 0x14, 0xd6, 0x2c, 0xbd, 0x17, 0x1e, 0xa1, 0x3d,
  0xec, 0x7d, 0xb4, 0x3c, 0x18, 0xa6, 0x5d, 0x3d, 0x91, 0x7c, 0x87, 0x3e,
  0xad, 0x38, 0x88, 0xbe, 0xf7, 0xe0, 0x7f, 0xbd, 0x57, 0xea, 0xb8, 0x3e,
  0xb3, 0x86, 0x42, 0xbd, 0x2c, 0x5d, 0x83, 0xbe, 0x59, 0xc8, 0x3b, 0x3e,
  0x17, 0xce, 0x84, 0x3c, 0x43, 0x3f, 0x8b, 0x3e, 0xc4, 0xcb, 0x9d, 0xbe,
  0x57, 0x21, 0x9f, 0xbc, 0x70, 0xd9, 0x17, 0x3e, 0xa8, 0x35, 0x5b, 0x3d,
  0x7d, 0x77, 0xc1, 0x3e, 0xfd, 0xb6, 0x2f, 0x3e, 0xf7, 0xe9, 0xab, 0xbd,
  0xf5, 0x54, 0x7a, 0x3e, 0xa8, 0x49, 0x26, 0xbe, 0x5d, 0xa3, 0x0a, 0xbe,
  0x08, 0x36, 0xb6, 0x3e, 0x46, 0xcb, 0x53, 0x3d, 0x60, 0x88, 0xd1, 0x3b,
  0x26, 0x4d, 0x27, 0x3d, 0x6f, 0x67, 0x1d, 0xbc, 0x2a, 0xe4, 0xcf, 0x3e,
  0xad, 0xa7, 0x44, 0xbd, 0x2f, 0x57, 0xc1, 0x3d, 0xe8, 0x49, 0x07, 0x3e,
  0x21, 0xba, 0x60, 0x3e, 0xcb, 0x22, 0xf1, 0x3e, 0x89, 0xe1, 0x68, 0x3e,
  0xf8, 0xda, 0x40, 0xbc, 0xea, 0x95, 0xcf, 0x3d, 0xd3, 0x02, 0x62, 0xbd,
  0x08, 0xc4, 0x14, 0xbe, 0x98, 0xa9, 0x54, 0x3e, 0x47, 0x0f, 0x6d, 0xbc,
  0xc9, 0xcf, 0x03, 0x3e, 0xa9, 0xaf, 0xd3, 0x3d, 0xcd, 0x37, 0xe9, 0x3d,
  0x65, 0x8f, 0x68, 0x3d, 0xa3, 0x05, 0x00, 0xbe, 0xca, 0x5d, 0x42, 0x3e,
  0xe1, 0x5a, 0x89, 0xbe, 0x19, 0x2a, 0x54, 0xbd, 0xa0, 0xda, 0xa8, 0x3e,
  0xff, 0x68, 0xcc, 0x3d, 0xa5, 0xf6, 0x6b, 0x3e, 0xe3, 0x09, 0x23, 0x3c,
  0xa6, 0xbe, 0x8b, 0xbb, 0x80, 0x66, 0xb0, 0xbe, 0x8e, 0x5c, 0x6a, 0xbe,
  0xfb, 0xf3, 0x15, 0xbe, 0x61, 0xa8, 0x8a, 0xbe, 0x10, 0x4e, 0x7f, 0x3d,
  0x49, 0x21, 0x42, 0xbe, 0x6f, 0x6c, 0x16, 0xbe, 0x90, 0x65, 0xa5, 0xbe,
  0xd7, 0xf7, 0x07, 0xbe, 0x88, 0x94, 0x69, 0x3d, 0xa3, 0xb4, 0x50, 0x3d,
  0x3b, 0x97, 0xaa, 0x3d, 0x9f, 0xd9, 0x3b, 0xbe, 0x24, 0xad, 0x41, 0x3f,
  0x32, 0x78, 0x71, 0x3e, 0x02, 0xbf, 0x26, 0xbc, 0xe3, 0x89, 0xf8, 0xbd,
  0x2e, 0xbe, 0xb6, 0xbb, 0x62, 0x94, 0x97, 0xbe, 0x7c, 0x5a, 0x11, 0xbe,
  0xde, 0x4a, 0x1c, 0xbd, 0x18, 0x72, 0x4a, 0x3f, 0xe0, 0x7b, 0xff, 0x3d,
  0x66, 0x23, 0x2d, 0xbd, 0x0d, 0xf4, 0x2b, 0xbe, 0x7b, 0xef, 0xa4, 0xbd,
  0x91, 0x50, 0x25, 0xbe, 0x74, 0xf2, 0x97, 0xbc, 0x47, 0xa9, 0x9b, 0x3c,
  0xed, 0xd0, 0x3c, 0x3f, 0xa5, 0x61, 0xce, 0x3d, 0xf5, 0xe2, 0xd3, 0xbc,
  0x56, 0xc1, 0xa0, 0xbe, 0x79, 0xc7, 0x94, 0x3d, 0xe3, 0x49, 0x00, 0xbf,
  0x1d, 0x57, 0xc8, 0xbd, 0x3f, 0xcb, 0xca, 0x3c, 0xc8, 0x4b, 0x23, 0x3f,
  0x59, 0x1d, 0xa2, 0xbc, 0x13, 0xb7, 0x00, 0xbe, 0xab, 0xad, 0x4c, 0x3d,
  0xea, 0x6d, 0x62, 0xbe, 0x89, 0x3f, 0x9b, 0xbd, 0xc8, 0xc5, 0x18, 0xbe,
  0x67, 0xd0, 0xc6, 0xbd, 0x02, 0x1e, 0x3b, 0x3f, 0x9c, 0x3b, 0x8e, 0x3e,
  0x93, 0x85, 0xe3, 0xbd, 0x7e, 0x40, 0x52, 0x3d, 0xd6, 0x29, 0x9a, 0x3c,
  0xf9, 0x97, 0xa9, 0xbe, 0x18, 0x80, 0x0f, 0x3e, 0x19, 0x50, 0xad, 0xbd,
  0xcc, 0x9f, 0x13, 0x3f, 0x16, 0x0f, 0xc0, 0x3c, 0xf7, 0xc4, 0xcd, 0x3d,
  0x22, 0x49, 0xbf, 0xbd, 0x67, 0xaf, 0x24, 0xbe, 0x85, 0xe1, 0x2f, 0xbe,
  0x4d, 0xba, 0x4f, 0xbe, 0x5a, 0x8c, 0xe3, 0x3c, 0x40, 0x0d, 0xe2, 0x3e,
  0x61, 0x8a, 0xa4, 0xbc, 0x77, 0x93, 0x85, 0x3d, 0x3b, 0xa4, 0x38, 0xbe,
  0x74, 0xd4, 0x04, 0xbe, 0x94, 0x1d, 0xd0, 0xbe, 0x48, 0xb6, 0x87, 0xbc,
  0x77, 0xe7, 0x3f, 0xbe, 0x11, 0xb7, 0x63, 0x3e, 0xfc, 0x2e, 0x27, 0xbe,
  0xd1, 0x84, 0x74, 0xbe, 0xfb, 0xfb, 0x75, 0x3d, 0xc6, 0xc2, 0xcf, 0xbd,
  0x26, 0xf9, 0x85, 0x3d, 0x87, 0x68, 0x5e, 0xbe, 0x68, 0xa6, 0x2b, 0xbe,
  0x38, 0x44, 0x2f, 0x3f, 0xf4, 0xf6, 0x14, 0xbe, 0xa9, 0xc4, 0x48, 0xbd,
  0x3b, 0xd4, 0x1a, 0xbe, 0x80, 0x9b, 0xc2, 0x3c, 0xb8, 0x52, 0xa6, 0xbe,
  0xa5, 0xa7, 0xbd, 0xbc, 0x4c, 0x6e, 0x90, 0xbc, 0x39, 0x27, 0x12, 0x3e,
  0xd8, 0x7c, 0x0c, 0xbe, 0xce, 0xee, 0x81, 0xbe, 0x36, 0xeb, 0x80, 0xbe,
  0x41, 0x66, 0xc3, 0xbd, 0xd2, 0xf4, 0xc4, 0xbd, 0x15, 0x1b, 0x43, 0xbe,
  0xc4, 0xd5, 0x1a, 0x3d, 0x69, 0x75, 0x70, 0x3f, 0x2b, 0xa8, 0xbc, 0xbd,
  0x61, 0x29, 0x58, 0xbe, 0x52, 0xd6, 0x4a, 0xbd, 0xcf, 0x99, 0x14, 0x3d,
  0x4f, 0x3d, 0x9d, 0xbe, 0x8f, 0x58, 0xfc, 0xbd, 0x42, 0xcd, 0x8e, 0xbd,
  0x49, 0x52, 0x01, 0x3e, 0x6b, 0x0e, 0x98, 0x3c, 0x93, 0xce, 0x9a, 0xbe,
  0x86, 0x58, 0xa4, 0xbc, 0x24, 0x2a, 0x0b, 0xbe, 0x50, 0xce, 0xae, 0x3c,
  0xbe, 0x94, 0x45, 0xbe, 0x81, 0xea, 0x02, 0xbe, 0x16, 0xf1, 0x46, 0x3e,
  0xc8, 0x1a, 0xe1, 0x3d, 0xb1, 0x75, 0x87, 0xbe, 0xc9, 0xa5, 0xbb, 0xbe,
  0x7b, 0x78, 0x33, 0xbd, 0xb2, 0xd7, 0xbd, 0xbd, 0x74, 0xc6, 0xb8, 0xbe,
  0x70, 0x86, 0x41, 0xbd, 0x4c, 0x36, 0xa7, 0xbd, 0x0d, 0x85, 0x88, 0xbd,
  0x24, 0x21, 0x53, 0xbe, 0x47, 0x17, 0x9d, 0xbe, 0xc3, 0x9a, 0x91, 0xbd,
  0xa1, 0xd9, 0x28, 0x3e, 0x5e, 0xa2, 0xdb, 0xbb, 0x00, 0xda, 0x06, 0xbe,
  0x9b, 0x68, 0x46, 0x3f, 0xb9, 0x36, 0x21, 0xbe, 0x2d, 0x93, 0xc8, 0x3a,
  0x05, 0xb8, 0x4c, 0xbe, 0xe2, 0x68, 0x4e, 0x3d, 0xc2, 0x22, 0xc9, 0xbd,
  0x1f, 0xdc, 0xa0, 0xbe, 0x6a, 0x58, 0xc7, 0x3d, 0x66, 0xf1, 0xd0, 0x3e,
  0x20, 0xaa, 0xa8, 0x3d, 0x71, 0x37, 0x91, 0x3c, 0x70, 0x8f, 0x71, 0xbe,
  0xd1, 0x5b, 0x74, 0xbe, 0xdc, 0x43, 0x51, 0xbd, 0x5c, 0x54, 0xa8, 0x3b,
  0x54, 0xb3, 0xfb, 0xbd, 0xd4, 0xf4, 0x66, 0x3f, 0xd1, 0xd4, 0xa0, 0x3e,
  0xad, 0xf6, 0x82, 0xbe, 0x18, 0xfa, 0x48, 0xbe, 0x3f, 0x5d, 0xc4, 0xba,
  0x73, 0xba, 0xa4, 0xba, 0xe3, 0x40, 0x9c, 0x3d, 0x7d, 0x9e, 0x41, 0x3e,
  0xc4, 0xd1, 0x05, 0x3f, 0x8b, 0xd5, 0x0a, 0x3e, 0x3f, 0xcd, 0x32, 0xbd,
  0xc8, 0x31, 0xea, 0x3c, 0xb5, 0x63, 0x84, 0xbe, 0x4f, 0xab, 0x0a, 0x3c,
  0x54, 0x15, 0xc2, 0x3b, 0xe1, 0x7a, 0x14, 0xbe, 0x50, 0x8f, 0xd9, 0x3d,
  0x12, 0xd5, 0x0a, 0x3e, 0xa1, 0x9e, 0x9f, 0xbe, 0xb2, 0xae, 0x14, 0x3b,
  0x37, 0x75, 0x6a, 0x3d, 0x8f, 0xa5, 0xc6, 0xbd, 0x4d, 0x40, 0xce, 0x3d,
  0x5d, 0xcd, 0xec, 0x3d, 0xa7, 0x6b, 0xe7, 0x3e, 0x61, 0xc0, 0x05, 0xbe,
  0x73, 0xf9, 0xa5, 0xbe, 0x69, 0x97, 0xe2, 0x3d, 0x29, 0xe4, 0x88, 0xbe,
  0x5f, 0x24, 0xd3, 0xbd, 0x28, 0xd4, 0x6e, 0x3d, 0x36, 0xac, 0xc7, 0x3d,
  0x34, 0xc7, 0xe4, 0x3e, 0x90, 0xcb, 0x85, 0x3d, 0x16, 0x09, 0xa2, 0x3e,
  0x7f, 0xd6, 0x94, 0xbe, 0x16, 0xda, 0x0a, 0xbe, 0xb0, 0x4b, 0x34, 0xbe,
  0xb7, 0x33, 0x1b, 0xbe, 0x3b, 0xe2, 0xa4, 0x3c, 0x53, 0x64, 0xa6, 0x3e,
  0x5d, 0xb6, 0x0c, 0xbe, 0x99, 0x77, 0x50, 0xbe, 0xdc, 0x05, 0x13, 0xbe,
  0xe5, 0x07, 0xed, 0x3c, 0xc4, 0x26, 0x31, 0xbd, 0x7b, 0xb5, 0x4a, 0x3c,
  0x70, 0x09, 0x14, 0xbe, 0xba, 0xd6, 0x06, 0x3f, 0x68, 0xea, 0x7a, 0xbe,
  0xbd, 0x61, 0x0b, 0x3d, 0x2f, 0x7a, 0x89, 0xbd, 0xea, 0x08, 0x0e, 0x3d,
  0x61, 0xb7, 0xae, 0xbe, 0x6b, 0xe4, 0x65, 0xbe, 0x61, 0xae, 0x66, 0x3d,
  0x3f, 0x0b, 0x29, 0x3e, 0xa2, 0xaa, 0x0d, 0x3e, 0xc4, 0x26, 0x96, 0xbe,
  0x96, 0x8c, 0xee, 0xbd, 0x02, 0x52, 0xaf, 0xbd, 0xef, 0xfc, 0x05, 0xbe,
  0xb0, 0x69, 0xfb, 0xbd, 0xa4, 0xa1, 0xf8, 0xbd, 0x4f, 0xca, 0x25, 0x3f,
  0x5a, 0xe1, 0x5b, 0xbe, 0x72, 0x3b, 0x60, 0xbe, 0x2e, 0xe2, 0x9b, 0xbe,
  0xb7, 0xa5, 0x7c, 0xbe, 0x03, 0xdc, 0x34, 0xbe, 0x28, 0x45, 0x8d, 0xbd,
  0xb9, 0x5c, 0xb0, 0xbc, 0x6e, 0x2a, 0x69, 0x3e, 0xbf, 0xd6, 0xbe, 0x3c,
  0x78, 0xe8, 0x44, 0xbe, 0x2c, 0x89, 0x90, 0xbe, 0xd6, 0x46, 0x1b, 0xbe,
  0xd0, 0x28, 0xfd, 0xbd, 0x8c, 0x93, 0xf3, 0xbd, 0x61, 0x78, 0xb6, 0x3d,
  0x83, 0x29, 0x11, 0xbe, 0x43, 0x1d, 0x9c, 0x3d, 0xea, 0xd3, 0x29, 0x3d,
  0x56, 0x67, 0x7c, 0xbe, 0x11, 0x0b, 0xf0, 0xbd, 0x50, 0x7b, 0x8c, 0xbe,
  0x2d, 0x95, 0xe8, 0x3d, 0xbb, 0xf6, 0x08, 0xbe, 0x4e, 0x71, 0xe9, 0xbc,
  0x01, 0xfe, 0x42, 0x3d, 0x60, 0x98, 0x80, 0xbd, 0x95, 0xa0, 0x6c, 0xbd,
  0xf0, 0x6a, 0x27, 0xbe, 0xc1, 0x54, 0x43, 0xbd, 0xf7, 0xde, 0x00, 0xbd,
  0x8e, 0x9d, 0x91, 0xbe, 0xd7, 0x7c, 0xbe, 0xbd, 0xfe, 0x54, 0x73, 0x3d,
  0x2b, 0x7e, 0x61, 0xbe, 0x23, 0xff, 0x32, 0xbe, 0x9d, 0x6e, 0xf3, 0x3c,
  0xc0, 0xba, 0x94, 0xbd, 0x4d, 0xad, 0x82, 0xbd, 0xe1, 0x5f, 0x49, 0xbc,
  0x51, 0x8d, 0x12, 0xbd, 0x39, 0xe1, 0x0a, 0xbd, 0x89, 0x6e, 0x8f, 0xbe,
  0x9f, 0x91, 0xae, 0xbc, 0xbf, 0x12, 0x2b, 0xbd, 0x22, 0xb7, 0x62, 0xbd,
  0x77, 0xdd, 0x1c, 0xbd, 0x2b, 0x27, 0x36, 0xbe, 0x72, 0xe5, 0xb0, 0xbd,
  0xe6, 0x4a, 0x50, 0xbd, 0x0c, 0x9b, 0xec, 0xbd, 0xb4, 0x1c, 0x06, 0xbe,
  0x9f, 0xba, 0x40, 0x3e, 0x5d, 0xf2, 0x14, 0xbe, 0x76, 0x23, 0x95, 0x3c,
  0xbf, 0x04, 0x5f, 0xbe, 0x2a, 0x0e, 0xff, 0xbd, 0x08, 0x52, 0x94, 0xbd,
  0x06, 0xf7, 0x8a, 0xbe, 0xbf, 0x5a, 0x91, 0x3d, 0x66, 0xac, 0x17, 0xbe,
  0x23, 0xe0, 0x4f, 0x3d, 0x05, 0x22, 0xb9, 0xbc, 0x7e, 0x80, 0x1f, 0xbe,
  0x94, 0x07, 0x46, 0x3e, 0xb0, 0xbc, 0x5f, 0xbe, 0xf4, 0x91, 0xb6, 0x3d,
  0x8a, 0xa2, 0x41, 0xbe, 0xa2, 0xbc, 0x0c, 0x3e, 0xc6, 0x19, 0x9d, 0xbd,
  0xdc, 0x6b, 0x93, 0xbd, 0xab, 0x59, 0x75, 0xbd, 0x08, 0x93, 0x9e, 0x3d,
  0x76, 0x76, 0x57, 0xbd, 0xf4, 0x6e, 0xa5, 0xbd, 0x33, 0xfc, 0xdb, 0x3d,
  0xa4, 0xc3, 0x08, 0xbd, 0x2e, 0xdd, 0xa5, 0x3d, 0xab, 0xb0, 0x32, 0x3e,
  0x19, 0x3c, 0x6b, 0x3d, 0xad, 0x4b, 0x1d, 0x3e, 0xe5, 0xad, 0xbd, 0x3d,
  0x8f, 0x58, 0x76, 0x3d, 0x5f, 0x22, 0x01, 0x3e, 0x63, 0x20, 0xb0, 0x3b,
  0xfd, 0x16, 0x12, 0xbe, 0x15, 0x82, 0x44, 0xbe, 0x13, 0x6d, 0x0f, 0x3d,
  0x0a, 0x46, 0xca, 0xbd, 0x49, 0xb7, 0xb7, 0x3d, 0xdc, 0x6d, 0x91, 0xbe,
  0xcc, 0xdd, 0x56, 0xbc, 0x83, 0xfe, 0x88, 0xbe, 0xd9, 0x9e, 0xfd, 0x3c,
  0x5f, 0x6c, 0xad, 0x3d, 0x93, 0xd0, 0x3a, 0xbe, 0xc4, 0xec, 0xe3, 0x3d,
  0x27, 0xd1, 0x5c, 0xbd, 0x04, 0x8d, 0xd4, 0xbd, 0xd9, 0xce, 0x9d, 0xbd,
  0xac, 0x96, 0x10, 0x3d, 0x5d, 0x36, 0x24, 0xbe, 0xea, 0x27, 0x2a, 0xbd,
  0xc2, 0x5e, 0x3d, 0x3d, 0x39, 0x53, 0x67, 0xbe, 0x98, 0xdf, 0xe4, 0x3d,
  0x9b, 0x81, 0x6a, 0xbe, 0xfb, 0x6f, 0x17, 0xbd, 0x95, 0xd0, 0x3a, 0xbd,
  0x5f, 0xe0, 0x58, 0x3d, 0x46, 0xaf, 0x3f, 0x3c, 0xde, 0x14, 0x10, 0xbe,
  0x99, 0xfc, 0xe9, 0xbd, 0xe7, 0x3b, 0x30, 0xbe, 0xe9, 0xa6, 0x89, 0xbe,
  0xe2, 0xcd, 0xee, 0xbd, 0xea, 0x0b, 0xfe, 0x3d, 0xc7, 0x4f, 0xa7, 0xbe,
  0x84, 0x39, 0xed, 0xbc, 0x79, 0x7f, 0x41, 0xbd, 0xe4, 0xd6, 0x97, 0xbd,
  0x5c, 0x37, 0xa0, 0x3d, 0xc6, 0x24, 0x1f, 0xbe, 0xab, 0xd4, 0x38, 0xbd,
  0x2d, 0xf6, 0x81, 0xbe, 0x08, 0x81, 0xd6, 0xbd, 0xc1, 0x79, 0x07, 0x3e,
  0x4d, 0x5f, 0x8d, 0x3d, 0x36, 0xe7, 0x06, 0xbd, 0x0b, 0x6a, 0x4f, 0xbe,
  0x18, 0x7a, 0x47, 0xbd, 0x7e, 0x38, 0x49, 0xbe, 0x9a, 0x3b, 0xf9, 0x3c,
  0x27, 0x3b, 0x6f, 0xbe, 0x10, 0x0b, 0x3a, 0xbe, 0x4b, 0x5f, 0x91, 0x3c,
  0x7c, 0x8d, 0x94, 0xbe, 0x23, 0xf3, 0x67, 0xbe, 0x44, 0xa2, 0x59, 0xbd,
  0x40, 0x57, 0x26, 0xbe, 0x75, 0x8e, 0x93, 0x3d, 0x48, 0x57, 0x2a, 0x3d,
  0x67, 0x23, 0xb5, 0x3b, 0x2d, 0x34, 0x4c, 0xbe, 0x85, 0x5b, 0x3a, 0x3e,
  0xc9, 0xe6, 0xbd, 0x3d, 0x98, 0x41, 0x43, 0xbe, 0x3a, 0x85, 0x0f, 0xbd,
  0x5b, 0x0f, 0x18, 0x3e, 0xdd, 0xce, 0xfd, 0xbd, 0x5e, 0x4b, 0x26, 0xbe,
  0x96, 0x5b, 0x41, 0xbe, 0xd2, 0xa2, 0xd9, 0xbd, 0x61, 0x20, 0x4f, 0x3e,
  0x82, 0xdf, 0xec, 0xbc, 0xed, 0x3e, 0x6b, 0x3d, 0xc6, 0x83, 0x31, 0xbe,
  0x5b, 0xa5, 0x30, 0xbe, 0xc1, 0x74, 0x33, 0xbe, 0x44, 0x61, 0x97, 0x3c,
  0x98, 0xe5, 0xb5, 0x3d, 0x42, 0x28, 0x5c, 0xbd, 0xad, 0xbf, 0xec, 0x3d,
  0x54, 0xbb, 0xde, 0x3c, 0xd7, 0xb5, 0x02, 0x3e, 0xdf, 0xb1, 0x37, 0xbe,
  0xb8, 0x82, 0xfe, 0xbd, 0xfb, 0xb2, 0x19, 0x3e, 0xc4, 0xe9, 0xc4, 0xbd,
  0x3a, 0x43, 0x3e, 0xbd, 0x0c, 0x90, 0x96, 0xbe, 0xdb, 0x33, 0x12, 0xbe,
  0x0a, 0x0a, 0xed, 0x3c, 0x0c, 0x05, 0xbc, 0xbd, 0x0e, 0x11, 0x5c, 0xbc,
  0xd5, 0x7f, 0xae, 0x3c, 0x1d, 0xe4, 0xec, 0xbd, 0xe1, 0x22, 0x8a, 0x3d,
  0x40, 0x6c, 0x14, 0xbe, 0x88, 0xbb, 0x42, 0x3a, 0xbe, 0x6d, 0x51, 0xbd,
  0x62, 0x67, 0xd3, 0xbd, 0xbc, 0x4f, 0x27, 0xbe, 0x31, 0x45, 0x49, 0xbe,
  0xcc, 0xda, 0x72, 0xbe, 0x00, 0xe5, 0x9d, 0x3d, 0xd6, 0xb3, 0xe2, 0xbd,
  0x53, 0x91, 0x1b, 0xbd, 0x42, 0xcb, 0x59, 0xbe, 0x1b, 0x18, 0x62, 0xbe,
  0x5e, 0x66, 0xce, 0xbd, 0xe8, 0xea, 0xb3, 0xbd, 0x0c, 0xb1, 0x18, 0x3e,
  0x70, 0x89, 0x38, 0x3d, 0xce, 0x23, 0x08, 0xbe, 0x7b, 0x0b, 0x14, 0x3c,
  0x9c, 0xd6, 0x6f, 0x3d, 0x2b, 0x6d, 0x32, 0xbe, 0x33, 0x8a, 0x16, 0xbe,
  0xba, 0x36, 0x2d, 0xbe, 0xcd, 0xd2, 0x82, 0xbd, 0x3b, 0xf8, 0x04, 0xbe,
  0xc9, 0x91, 0x8f, 0xbe, 0x7b, 0x14, 0x19, 0xbe, 0xdf, 0x1c, 0x8f, 0x3d,
  0xd1, 0xc5, 0x00, 0x3e, 0x02, 0xd4, 0xb1, 0xbd, 0x4a, 0x89, 0x65, 0xbe,
  0x94, 0xd1, 0xda, 0xbd, 0x44, 0xd1, 0xa7, 0xbd, 0x77, 0xc7, 0x60, 0xbe,
  0x4d, 0xaf, 0x8e, 0x3c, 0x87, 0xab, 0x51, 0x3e, 0x15, 0x3d, 0x45, 0xbe,
  0xc6, 0x86, 0x63, 0x3d, 0x3b, 0xf5, 0x25, 0xbe, 0x40, 0xa9, 0x01, 0xbd,
  0x47, 0x29, 0x7f, 0x3c, 0x0a, 0xe9, 0x7e, 0xbe, 0x84, 0x1b, 0x45, 0xbe,
  0xd9, 0x85, 0xa5, 0x3a, 0xdb, 0x56, 0xac, 0x3d, 0x43, 0xe6, 0x5a, 0x3e,
  0x0f, 0xd4, 0x4d, 0xbe, 0xab, 0x7d, 0x1a, 0x3e, 0x74, 0xd9, 0xf3, 0xbd,
  0xf9, 0x2e, 0xae, 0xbd, 0x6c, 0x16, 0x91, 0xbe, 0x4f, 0x1a, 0x47, 0xbe,
  0x4e, 0x00, 0x72, 0xbe, 0x55, 0x01, 0xa3, 0xbd, 0x6f, 0xc9, 0x0d, 0xbe,
  0xbc, 0x59, 0x93, 0xbd, 0x1f, 0xcc, 0x76, 0x3d, 0xd4, 0x6b, 0x01, 0xbe,
  0x2a, 0xac, 0x8a, 0x3d, 0x97, 0x7f, 0x2f, 0xbe, 0x50, 0xa9, 0x10, 0xbe,
  0x7f, 0x8d, 0xbb, 0xbd, 0xd8, 0x30, 0x8e, 0xbd, 0xb6, 0x50, 0xc3, 0xbe,
  0x89, 0xf2, 0xba, 0x3d, 0xe4, 0x22, 0x1d, 0x3e, 0xb3, 0xb9, 0x13, 0xbd,
  0x08, 0x58, 0xbf, 0x3d, 0x33, 0x37, 0xf8, 0xbc, 0xb5, 0x18, 0x82, 0x3d,
  0x5b, 0x2d, 0x87, 0x3d, 0x79, 0x8d, 0xb0, 0x3c, 0xd2, 0x65, 0xfa, 0xbc,
  0xb4, 0x4e, 0x94, 0x3c, 0x01, 0xbd, 0xb0, 0x3a, 0xd6, 0x39, 0x70, 0xbe,
  0x4e, 0x49, 0x63, 0x3d, 0x9d, 0xa0, 0xcf, 0x3e, 0xd7, 0xfa, 0x7c, 0xbd,
  0x54, 0x47, 0x91, 0xbd, 0x45, 0x69, 0xb2, 0x3c, 0x1a, 0xc1, 0x18, 0x3e,
  0x4c, 0x6d, 0x05, 0xbd, 0x63, 0x28, 0x5b, 0x3e, 0x46, 0xa1, 0x19, 0xbd,
  0xc5, 0xca, 0x1e, 0xbe, 0xb5, 0x03, 0x28, 0xbc, 0x50, 0x3d, 0x11, 0x3e,
  0x38, 0xc7, 0x0b, 0xbe, 0xa7, 0x71, 0x09, 0xbe, 0x52, 0x6a, 0xba, 0x3d,
  0x3f, 0xa5, 0xa4, 0xbe, 0xd2, 0x95, 0xdb, 0x3d, 0xa8, 0x96, 0x8b, 0xbd,
  0x2e, 0xbc, 0xe6, 0xbd, 0xa8, 0xf5, 0x17, 0x3e, 0x11, 0xb5, 0x27, 0xbd,
  0x16, 0x9c, 0x2e, 0x3e, 0x17, 0x11, 0xb9, 0x3c, 0xc9, 0x58, 0x10, 0xbe,
  0xb2, 0x53, 0x82, 0xbc, 0xb4, 0xe9, 0x6d, 0xbd, 0x48, 0x0f, 0xaa, 0x3d,
  0x84, 0xc1, 0x09, 0x3e, 0x2c, 0x8d, 0x4f, 0xbd, 0x10, 0xec, 0x9a, 0xbe,
  0xaa, 0x2b, 0x86, 0xbd, 0xd5, 0xc0, 0x67, 0xbe, 0xbf, 0x82, 0xa6, 0x3d,
  0xe7, 0xad, 0x6f, 0xbe, 0xf0, 0xb4, 0x89, 0x3c, 0x47, 0x45, 0x26, 0x3e,
  0x72, 0xff, 0x43, 0xbe, 0xdf, 0xa5, 0x31, 0xbd, 0x88, 0x54, 0x6b, 0xbb,
  0x69, 0x5e, 0x12, 0xbe, 0x25, 0x85, 0x3c, 0xbc, 0x3b, 0x66, 0x14, 0xbe,
  0x26, 0xf3, 0x8e, 0x3c, 0xe7, 0x09, 0xb2, 0x3d, 0x7d, 0x11, 0x7f, 0x3c,
  0x7c, 0x26, 0x78, 0xbe, 0x3e, 0x22, 0xae, 0xbd, 0x06, 0x38, 0x30, 0xbe,
  0xe0, 0x95, 0x5c, 0x3d, 0x3e, 0x46, 0xd2, 0xbd, 0xf3, 0xcf, 0x90, 0x3b,
  0xd5, 0x31, 0x62, 0x3d, 0x0c, 0xe4, 0xdd, 0x3d, 0xae, 0xba, 0xb0, 0x3c,
  0xf5, 0xad, 0xbe, 0xbc, 0xc8, 0xda, 0xbe, 0x3d, 0x7b, 0x78, 0x26, 0xb9,
  0xfd, 0x15, 0xa9, 0xbd, 0xde, 0xcc, 0xa0, 0x3d, 0x23, 0x52, 0x6e, 0x3e,
  0xbb, 0xe2, 0x83, 0x3d, 0x98, 0xce, 0x7e, 0xbe, 0xb2, 0x6a, 0x85, 0x3d,
  0xf9, 0x11, 0x44, 0xbd, 0xa9, 0x93, 0x70, 0x3e, 0x18, 0xbd, 0x48, 0x3e,
  0x24, 0xb7, 0x4d, 0xbd, 0xaf, 0xe1, 0x32, 0x3d, 0x77, 0x35, 0x8d, 0x3d,
  0xf7, 0xff, 0x9a, 0x3d, 0xdb, 0x9e, 0x19, 0xbd, 0x29, 0x2e, 0x35, 0x3e,
  0x55, 0x3a, 0x25, 0x3c, 0xff, 0xdf, 0xab, 0xbc, 0x40, 0x29, 0x36, 0x3e,
  0x36, 0x53, 0x6d, 0x3e, 0xa3, 0x21, 0x75, 0x3e, 0x5e, 0x16, 0xa8, 0xbd,
  0x0d, 0xd0, 0xcc, 0xbc, 0x6b, 0xce, 0x24, 0x3d, 0x5e, 0xcb, 0x16, 0x3e,
  0xd8, 0xf5, 0xd8, 0x3d, 0x44, 0xc6, 0x03, 0x3c, 0xa2, 0x31, 0x13, 0x3e,
  0x4d, 0x15, 0x52, 0x3e, 0xfd, 0xd7, 0x31, 0x3c, 0x17, 0x7f, 0x44, 0x3c,
  0x00, 0x73, 0x2c, 0x3b, 0x17, 0xe1, 0xfd, 0x3b, 0x66, 0x67, 0x64, 0x3d,
  0x8a, 0xa4, 0xb1, 0x3c, 0x09, 0x0e, 0xf1, 0x3d, 0x83, 0xd6, 0x16, 0x3e,
  0x13, 0x72, 0x73, 0x3c, 0x1a, 0x62, 0xca, 0x3d, 0x0e, 0x09, 0x2b, 0xbd,
  0x4d, 0xea, 0x8a, 0xbd, 0x32, 0x49, 0x18, 0x3e, 0x68, 0xa3, 0xb2, 0xbc,
  0xad, 0x93, 0x91, 0xba, 0x23, 0xa8, 0x3b, 0xbe, 0x62, 0x65, 0x73, 0x3d,
  0x5d, 0xd4, 0x50, 0x3d, 0x8d, 0x29, 0x79, 0xbe, 0xa7, 0xcb, 0x19, 0x3d,
  0xad, 0x5b, 0xa1, 0xbd, 0xb0, 0x22, 0x54, 0x3d, 0xdc, 0x0a, 0x93, 0x3d,
  0x06, 0x65, 0x9f, 0xbc, 0x7d, 0xc8, 0x65, 0xbd, 0x13, 0xdd, 0x95, 0xbd,
  0xb6, 0x3a, 0x89, 0xbd, 0x07, 0xa6, 0xdc, 0xbd, 0x02, 0x07, 0x92, 0xbd,
  0x86, 0x86, 0x36, 0x3d, 0x70, 0xbc, 0x80, 0xbd, 0xd5, 0x07, 0x6c, 0x3d,
  0x59, 0x2e, 0x1d, 0x3d, 0x4c, 0xee, 0x26, 0x3c, 0x8e, 0x6c, 0x9c, 0x3d,
  0xa2, 0xed, 0xbe, 0xbc, 0x23, 0xc0, 0x4a, 0x3d, 0xef, 0xeb, 0x46, 0x3a,
  0x4f, 0x7a, 0xd6, 0x3d, 0xe0, 0xcb, 0xa6, 0xbc, 0x5c, 0x7c, 0x92, 0x3d,
  0x83, 0x76, 0x56, 0xbe, 0xe8, 0xb0, 0x1b, 0xbd, 0x71, 0xac, 0x6e, 0x3d,
  0x71, 0xb7, 0xaf, 0x3d, 0xcf, 0x9a, 0xf3, 0x3d, 0xca, 0xca, 0xa4, 0x3e,
  0xe1, 0xf3, 0xc1, 0xbd, 0xa8, 0x2f, 0xcc, 0x3d, 0xe6, 0xce, 0x15, 0xbd,
  0x82, 0xfa, 0x45, 0x3d, 0x97, 0xd2, 0x32, 0x3d, 0x18, 0xe8, 0xf3, 0xbb,
  0xf5, 0x5d, 0x92, 0xbc, 0x66, 0x4d, 0xdd, 0x3e, 0x01, 0x79, 0x32, 0xbe,
  0x6d, 0x41, 0xcc, 0x3d, 0x2c, 0x92, 0xb2, 0xbd, 0x7b, 0x46, 0xa4, 0xbc,
  0xcb, 0x28, 0x17, 0x3f, 0xcf, 0x1c, 0x75, 0xbd, 0xdc, 0x43, 0x71, 0x3c,
  0x0d, 0x9b, 0xf6, 0x3d, 0xc3, 0xfe, 0xc0, 0xbc, 0x51, 0x44, 0xf6, 0x3d,
  0x26, 0x55, 0x86, 0xbd, 0x6d, 0xb6, 0x1c, 0x3d, 0x61, 0xa9, 0x18, 0x3b,
  0xc6, 0xaf, 0x08, 0xbc, 0x51, 0xf3, 0xf0, 0x3d, 0xbd, 0xe8, 0x87, 0x3e,
  0x1b, 0x20, 0x4f, 0xbd, 0x95, 0xc1, 0xb1, 0x3d, 0xca, 0xb0, 0x10, 0xbe,
  0x5a, 0x1d, 0x7c, 0x3c, 0x97, 0xa4, 0x9f, 0x3e, 0xf5, 0x1e, 0xe1, 0xbd,
  0x67, 0x4b, 0xb1, 0xbb, 0x2e, 0x84, 0xaf, 0x3e, 0xfb, 0xf5, 0xbb, 0xbe,
  0x2a, 0x85, 0x15, 0x3e, 0x49, 0x85, 0xc2, 0xbd, 0x5d, 0xb7, 0xa4, 0xbe,
  0x03, 0xd9, 0xe9, 0x3c, 0x2c, 0x45, 0xe5, 0xbd, 0x59, 0x94, 0xae, 0x3d,
  0xee, 0x9e, 0x84, 0x3d, 0xa2, 0x5c, 0x87, 0xbe, 0x1c, 0x31, 0x4e, 0x3d,
  0x59, 0x2c, 0xd6, 0xbd, 0x35, 0x8b, 0xba, 0xbc, 0xce, 0x99, 0x1e, 0xbe,
  0xf1, 0x4d, 0x03, 0xbe, 0x1e, 0x01, 0x0b, 0x3d, 0xbc, 0x82, 0x07, 0x3e,
  0x62, 0xc6, 0xdc, 0xbd, 0x21, 0x9c, 0x46, 0x3e, 0x95, 0xd9, 0x71, 0xbd,
  0x0d, 0xa9, 0x54, 0xbe, 0xba, 0x00, 0xed, 0x3c, 0x4d, 0x4f, 0xf3, 0xbd,
  0x4e, 0x01, 0xf6, 0x3d, 0xff, 0x64, 0xda, 0x3c, 0xb1, 0x48, 0xec, 0xbd,
  0x4f, 0xd0, 0xdf, 0x3c, 0xd9, 0x86, 0x21, 0xbe, 0xb6, 0x9d, 0xf1, 0xbc,
  0x2d, 0xe5, 0x9d, 0xbe, 0x4f, 0x1b, 0x4d, 0xbe, 0xc4, 0x85, 0x82, 0xbc,
  0x6d, 0xf6, 0xf4, 0x3d, 0xd4, 0xc7, 0x9c, 0xbd, 0x98, 0xfd, 0x82, 0x3c,
  0x36, 0x8c, 0x2c, 0xbd, 0x83, 0xfe, 0x10, 0xbe, 0xa5, 0x9c, 0xab, 0x3c,
  0x1b, 0xe1, 0x4d, 0xbd, 0x17, 0xc5, 0x26, 0xbd, 0x6e, 0x58, 0xa0, 0x3d,
  0xbd, 0x94, 0x9c, 0xbd, 0x7c, 0xe2, 0x43, 0xbd, 0xff, 0xf0, 0xaf, 0xbd,
  0xa7, 0x70, 0xa8, 0x3d, 0x0a, 0x42, 0x31, 0xbe, 0x27, 0xfa, 0x23, 0xbe,
  0x52, 0x72, 0x65, 0x3d, 0x4d, 0x2f, 0x09, 0x3f, 0x25, 0x05, 0x34, 0x3d,
  0xc5, 0x4f, 0xed, 0xbe, 0x89, 0xe9, 0x3c, 0x3e, 0x9a, 0x65, 0x3b, 0xbe,
  0x97, 0x7b, 0xac, 0xbc, 0x03, 0x6e, 0x2e, 0xbe, 0x36, 0xa4, 0xf2, 0xbd,
  0x39, 0xf7, 0xfe, 0x3c, 0xbc, 0xa5, 0x14, 0xbd, 0x77, 0x2a, 0x84, 0x3d,
  0x17, 0x86, 0xa4, 0xbd, 0x27, 0x62, 0xde, 0xbe, 0x00, 0x16, 0xc0, 0xbd,
  0x64, 0xfd, 0xdd, 0xbe, 0x7f, 0xc5, 0x9f, 0x3d, 0x0a, 0xfc, 0x7c, 0x3e,
  0xa5, 0xde, 0x8d, 0x3e, 0xc8, 0xd9, 0xa0, 0xbe, 0x59, 0xc5, 0x49, 0x3c,
  0x63, 0x6d, 0xa0, 0x3d, 0xa8, 0x7f, 0x1b, 0x3d, 0x0c, 0xe3, 0x8b, 0xbd,
  0xd1, 0x3c, 0xb4, 0x3d, 0x7e, 0x5d, 0xb1, 0xbe, 0xc0, 0x03, 0x86, 0x3d,
  0xb9, 0xa7, 0x1f, 0x3e, 0x8f, 0x79, 0x92, 0xbc, 0x45, 0xb3, 0xa3, 0xbe,
  0xf4, 0x14, 0x93, 0xbd, 0xca, 0x99, 0x11, 0x3f, 0xec, 0xd9, 0x27, 0xbd,
  0x88, 0x69, 0xc9, 0x3e, 0x02, 0x48, 0x29, 0x3e, 0x5b, 0x1e, 0xc8, 0xbd,
  0x40, 0x56, 0x86, 0xbc, 0xb4, 0x03, 0xa7, 0x3d, 0x85, 0xc0, 0xa2, 0x3c,
  0xf0, 0x37, 0xf4, 0x3c, 0x9d, 0x4d, 0x98, 0xbd, 0x6b, 0x9a, 0xcf, 0xbe,
  0x12, 0x73, 0x0d, 0x3e, 0x77, 0xf5, 0x47, 0x3e, 0x07, 0x1d, 0xd9, 0xbd,
  0x78, 0xd6, 0x46, 0xbe, 0x59, 0x62, 0xd8, 0xbe, 0x93, 0xc8, 0xc0, 0x3e,
  0x15, 0x98, 0xff, 0xbb, 0x79, 0xb8, 0xd1, 0x3e, 0x67, 0xdf, 0x9f, 0x3d,
  0x22, 0x28, 0xee, 0x3d, 0xad, 0x19, 0x88, 0xbd, 0x13, 0xc9, 0x9c, 0x3e,
  0xf4, 0x01, 0xee, 0x3c, 0x22, 0xd1, 0x33, 0xbc, 0x7a, 0x57, 0xae, 0x3d,
  0x84, 0xe3, 0x5c, 0xbe, 0x9e, 0x38, 0xf5, 0x3d, 0x1d, 0xf0, 0xfe, 0x3d,
  0xdd, 0x73, 0x0f, 0xbc, 0xfc, 0x00, 0x20, 0xbe, 0xe4, 0xb6, 0xdc, 0xbb,
  0xa2, 0x63, 0xa2, 0x3e, 0xde, 0xaf, 0x53, 0x3d, 0xad, 0xc9, 0x20, 0x3e,
  0xd8, 0x90, 0xdd, 0xbd, 0x72, 0xc9, 0xa9, 0xbd, 0x9a, 0x45, 0xcd, 0xbd,
  0x25, 0xde, 0x15, 0xbe, 0x26, 0xea, 0xc8, 0x3c, 0xd9, 0xd7, 0x00, 0xbd,
  0xd9, 0x45, 0x4f, 0xbe, 0xd3, 0x12, 0x11, 0xbf, 0x79, 0x51, 0x36, 0x3e,
  0x32, 0xfe, 0x5a, 0x3e, 0x5a, 0x56, 0x67, 0xbb, 0xca, 0xd3, 0x0c, 0xbe,
  0xbc, 0x79, 0xdf, 0x3d, 0xcd, 0xf7, 0x2e, 0x3e, 0xb7, 0x28, 0x2f, 0x3e,
  0xf5, 0xf4, 0xca, 0x3e, 0x5b, 0x66, 0x8e, 0xbd, 0x40, 0x83, 0x83, 0xbd,
  0x45, 0x53, 0x8e, 0xbd, 0x5a, 0x11, 0x5b, 0x3d, 0x8e, 0x63, 0xdc, 0x3c,
  0xa9, 0xf6, 0x83, 0xbe, 0x42, 0xde, 0x05, 0xbf, 0x1a, 0x22, 0x82, 0xbf,
  0x1a, 0xd9, 0x00, 0x3e, 0x27, 0x69, 0x78, 0x3e, 0x01, 0x93, 0x2f, 0x3d,
  0xc2, 0xb8, 0x8e, 0xbe, 0x1c, 0xc3, 0x8b, 0xbe, 0x03, 0xc2, 0xd2, 0xbd,
  0xe6, 0x98, 0x5c, 0xbd, 0xa2, 0xa6, 0x59, 0x3e, 0x7d, 0x9e, 0x1d, 0x3f,
  0xd6, 0xaf, 0x05, 0xbc, 0x1f, 0xea, 0xee, 0xbd, 0xc3, 0x7f, 0xb1, 0x3b,
  0xaf, 0xb6, 0xa3, 0x3c, 0xfb, 0x9c, 0x95, 0x3d, 0x61, 0x58, 0x95, 0xbe,
  0xc5, 0x73, 0x83, 0xbf, 0xbb, 0x90, 0x74, 0xbe, 0x2b, 0x29, 0xa9, 0xbd,
  0x97, 0x46, 0x2d, 0x3e, 0xaf, 0xa2, 0xe3, 0x3d, 0xab, 0x50, 0xdc, 0xbc,
  0xb5, 0xf4, 0x4c, 0xbe, 0xfa, 0xe8, 0x2c, 0x3d, 0x06, 0xe9, 0x2e, 0x3e,
  0xec, 0x6a, 0xd6, 0x3d, 0xb2, 0xc9, 0x28, 0xbe, 0x1b, 0xdd, 0x76, 0xbe,
  0x66, 0x0e, 0x9a, 0x3d, 0x2e, 0xce, 0x01, 0xbf, 0x5f, 0xcd, 0x87, 0x3d,
  0x1d, 0x4d, 0x60, 0xbe, 0x80, 0xc0, 0xb0, 0xbe, 0xee, 0x56, 0xdb, 0x3d,
  0x68, 0x52, 0x4a, 0x3d, 0xd6, 0x5a, 0xb4, 0x3c, 0x27, 0x1d, 0x74, 0x3d,
  0x0f, 0x5d, 0x24, 0xbe, 0xde, 0xb0, 0xf2, 0xbb, 0x1f, 0x41, 0x8d, 0xbe,
  0x93, 0xe3, 0x7c, 0x3b, 0xe6, 0x1a, 0xb2, 0x3e, 0x80, 0xe1, 0x92, 0xbe,
  0xfe, 0xe0, 0x87, 0xbe, 0x90, 0xc9, 0x0d, 0x3e, 0x10, 0xf2, 0xda, 0xbe,
  0x81, 0xf6, 0x2d, 0x3e, 0xf3, 0xec, 0x91, 0xbc, 0xb7, 0xfe, 0x18, 0x3e,
  0x8f, 0x7c, 0xa2, 0xbc, 0x3c, 0x09, 0x65, 0xbd, 0x8a, 0xce, 0xbc, 0x3d,
  0xec, 0x6c, 0x40, 0x3c, 0x1c, 0x33, 0x6b, 0xbd, 0x9c, 0x60, 0xa9, 0x3d,
  0xc9, 0xb1, 0x85, 0xbe, 0x00, 0x43, 0x6e, 0x3c, 0xca, 0xf6, 0x94, 0x3e,
  0x03, 0x5e, 0x21, 0xbc, 0x60, 0x91, 0x00, 0xbe, 0x6a, 0x1d, 0x8d, 0xbb,
  0xf3, 0xb4, 0xb7, 0xbe, 0xe1, 0xa5, 0xb1, 0x3d, 0x38, 0x14, 0xa8, 0x3d,
  0x01, 0xba, 0x4b, 0x3d, 0x61, 0x16, 0x27, 0xbd, 0xa4, 0x57, 0x1f, 0x3b,
  0xa0, 0x44, 0xff, 0x3d, 0xbb, 0x30, 0x00, 0x3e, 0xfe, 0x5d, 0x85, 0x3e,
  0xd7, 0x8f, 0x2e, 0xbe, 0xa0, 0x5f, 0x57, 0x3e, 0x7f, 0x09, 0xec, 0x3d,
  0x55, 0x1e, 0x94, 0xbd, 0x18, 0x0d, 0x83, 0xbe, 0xc8, 0xde, 0x1d, 0xbd,
  0xcb, 0xa8, 0xf3, 0xbd, 0x2c, 0x80, 0xe4, 0xbd, 0x80, 0x04, 0xe1, 0xbb,
  0x7b, 0x0f, 0x33, 0x3c, 0x35, 0x0f, 0x83, 0x3d, 0xb0, 0x58, 0xf0, 0x3d,
  0x43, 0x14, 0x59, 0xbd, 0x95, 0x73, 0x55, 0x3c, 0x48, 0x6b, 0x98, 0x3c,
  0x9a, 0x77, 0x16, 0x3e, 0x88, 0x7b, 0x2b, 0x3e, 0xdc, 0x49, 0x20, 0xbd,
  0x2f, 0x61, 0x79, 0x3e, 0xa1, 0xf3, 0x82, 0x3e, 0x7d, 0xd7, 0x4a, 0xbd,
  0xe9, 0xeb, 0x47, 0x3e, 0x8e, 0x83, 0x17, 0xbe, 0xb9, 0x79, 0x22, 0x3d,
  0xc2, 0x1f, 0xa6, 0x3c, 0xf9, 0x3f, 0x38, 0xbe, 0x0d, 0xdc, 0x8a, 0x3d,
  0x36, 0xe7, 0x48, 0xbe, 0x90, 0x17, 0x48, 0xbe, 0x8a, 0x2f, 0x4f, 0xbd,
  0xef, 0x9a, 0x46, 0x3b, 0xe3, 0x59, 0x31, 0x3c, 0x23, 0xc7, 0xc8, 0x3c,
  0xb9, 0x89, 0x23, 0x3e, 0xb8, 0xcd, 0x58, 0x3d, 0xe5, 0xb4, 0x50, 0xbd,
  0x23, 0x15, 0x22, 0xbc, 0xb4, 0x52, 0x8c, 0x3e, 0x64, 0xf4, 0x28, 0xbe,
  0x5c, 0x18, 0x16, 0x3e, 0x8b, 0xec, 0x6f, 0x3d, 0xd6, 0xb8, 0xd9, 0xbd,
  0x99, 0x44, 0xf8, 0x3a, 0x5d, 0x6c, 0xf4, 0xbd, 0xdd, 0x3a, 0x9a, 0xbe,
  0xc7, 0xb5, 0xbe, 0xbe, 0x4b, 0xae, 0xf2, 0x3c, 0xb0, 0xae, 0x06, 0x3e,
  0x8b, 0x3f, 0x48, 0xbd, 0x48, 0x1d, 0x56, 0xbc, 0x82, 0x61, 0x61, 0xbe,
  0x80, 0xd2, 0xff, 0xbe, 0x4f, 0xd0, 0xa7, 0xbd, 0x68, 0x08, 0x38, 0x3e,
  0x75, 0xbc, 0x65, 0xbe, 0x5a, 0xa0, 0x2e, 0x3e, 0x1d, 0x95, 0x88, 0xbe,
  0x3d, 0x14, 0x2a, 0xbc, 0xc8, 0xe6, 0xcb, 0xbd, 0x93, 0x11, 0x59, 0xbe,
  0x9c, 0x8c, 0x02, 0x3a, 0x98, 0x64, 0x00, 0xbf, 0xdc, 0x61, 0xfd, 0xbd,
  0xca, 0x46, 0xb6, 0xbd, 0xcb, 0xba, 0x96, 0xbd, 0x88, 0x8f, 0xe3, 0x3d,
  0xc1, 0x32, 0x95, 0x3d, 0x4d, 0x19, 0xab, 0xbd, 0x4f, 0x5f, 0x7e, 0xbe,
  0xc5, 0x24, 0xc3, 0x3d, 0x14, 0xf0, 0x21, 0xbe, 0x3d, 0xd7, 0xb4, 0xbc,
  0xa8, 0x7a, 0x8c, 0xbe, 0xf3, 0xfd, 0xd8, 0xbd, 0xe5, 0x3a, 0x1a, 0xbe,
  0xfe, 0xed, 0x79, 0xbc, 0x63, 0x92, 0xa9, 0xbd, 0x50, 0x45, 0x66, 0xbe,
  0x31, 0x26, 0x2c, 0xbd, 0xbf, 0x37, 0x43, 0xbe, 0x75, 0xd8, 0xae, 0x3d,
  0xf6, 0xc3, 0x2e, 0xbe, 0xc0, 0x33, 0x56, 0xbd, 0x40, 0x5e, 0x05, 0x3e,
  0xeb, 0xf7, 0x96, 0xbe, 0xa6, 0xc8, 0x8d, 0xbe, 0x18, 0x34, 0x94, 0x3c,
  0xd8, 0x0e, 0x36, 0xbe, 0x3d, 0xdc, 0xdd, 0x3d, 0x24, 0x8d, 0x29, 0x3e,
  0x95, 0xf3, 0x01, 0x3e, 0x0a, 0x50, 0x29, 0x3d, 0x53, 0x8d, 0xe9, 0xbd,
  0xe0, 0xc7, 0x34, 0x3e, 0xb9, 0x25, 0x12, 0xbe, 0xe4, 0x69, 0xd1, 0xbd,
  0x8c, 0x62, 0x06, 0x3e, 0xf9, 0xe9, 0x8c, 0xbc, 0x31, 0x36, 0x42, 0x3e,
  0x45, 0xdb, 0xc1, 0x3c, 0x39, 0x69, 0x08, 0xbe, 0x44, 0x72, 0xd8, 0x3d,
  0xff, 0xcf, 0x16, 0x3e, 0x7d, 0x56, 0x16, 0xbe, 0xbf, 0x2f, 0x09, 0xbe,
  0xfb, 0x48, 0xf9, 0x3d, 0x24, 0x38, 0xc3, 0xbc, 0x4a, 0x43, 0xf8, 0xbd,
  0x5d, 0xa3, 0x05, 0x3d, 0xdd, 0xe5, 0xbd, 0xbd, 0x21, 0x1f, 0x15, 0xbe,
  0x53, 0x0d, 0xaa, 0x3c, 0xb2, 0x7a, 0xff, 0xbd, 0x46, 0xf3, 0x3a, 0x3e,
  0x98, 0x7f, 0xe5, 0xbd, 0x57, 0x4f, 0x34, 0xbd, 0x80, 0xdd, 0x2a, 0xbe,
  0xce, 0xa9, 0x56, 0xbd, 0x51, 0xe1, 0x23, 0xbe, 0x5f, 0x41, 0x80, 0xbb,
  0x45, 0x35, 0x11, 0xbd, 0x5d, 0xb1, 0x99, 0xbb, 0x39, 0x5d, 0x70, 0xbd,
  0x4c, 0xa6, 0xa7, 0x3d, 0xe7, 0x8a, 0x1c, 0xbe, 0xe7, 0x20, 0x2e, 0xbe,
  0x10, 0xea, 0xb6, 0xbd, 0x99, 0x41, 0x91, 0x3b, 0x9c, 0xe3, 0x17, 0xbe,
  0x61, 0x5b, 0x48, 0xbe, 0x48, 0xcf, 0x29, 0xbe, 0xb0, 0x23, 0x96, 0x3d,
  0x48, 0xf6, 0x97, 0x3d, 0xd9, 0xaa, 0x1b, 0xbe, 0x15, 0xed, 0x05, 0xbd,
  0x18, 0x67, 0x9a, 0x3d, 0x69, 0x07, 0x0e, 0xbe, 0x8f, 0xa6, 0x81, 0xbd,
  0x5e, 0xbd, 0x13, 0xbe, 0x3c, 0xec, 0xaf, 0xbd, 0x9f, 0x10, 0x35, 0x3c,
  0xf9, 0x03, 0x69, 0x3e, 0xe0, 0x1b, 0xf6, 0xbd, 0x0f, 0x93, 0x2d, 0xbe,
  0xe0, 0xee, 0x2b, 0xbe, 0xa9, 0xae, 0x65, 0x3e, 0x73, 0xd9, 0xb5, 0x3d,
  0x68, 0x3b, 0x0b, 0x3e, 0x35, 0x1e, 0xbe, 0xbd, 0x21, 0x80, 0x7c, 0xbe,
  0x9d, 0x5c, 0x11, 0x3d, 0x28, 0x06, 0x02, 0xbd, 0x87, 0xb2, 0x0d, 0xbe,
  0xf4, 0x96, 0xfe, 0xbd, 0x54, 0xfa, 0x84, 0xbe, 0x15, 0xc1, 0xbf, 0x3d,
  0x82, 0xca, 0xb6, 0x3d, 0x69, 0x9f, 0x8a, 0xbe, 0xd7, 0xf0, 0x0d, 0xbd,
  0x2d, 0x12, 0x61, 0xbe, 0x87, 0xb0, 0x7c, 0x3d, 0xd8, 0xe6, 0x26, 0xbe,
  0x0f, 0x45, 0x4c, 0x3d, 0xaf, 0xfb, 0x60, 0x3d, 0xfc, 0xfb, 0xcb, 0xbd,
  0xab, 0xe4, 0xca, 0xbd, 0x09, 0xd9, 0x3d, 0x3d, 0x98, 0x1c, 0x29, 0xbe,
  0x84, 0x23, 0x8a, 0x3c, 0x71, 0xce, 0x19, 0xbd, 0xcc, 0xab, 0x31, 0xbe,
  0x16, 0x0d, 0xb5, 0x3c, 0x6a, 0x85, 0x8a, 0x3c, 0xe8, 0x49, 0x15, 0xbe,
  0x9b, 0x7f, 0xe6, 0xbd, 0xd6, 0x99, 0xa2, 0xbd, 0xa2, 0x74, 0x9e, 0xbd,
  0xa0, 0xa5, 0x0e, 0xbe, 0xe3, 0xa6, 0x0c, 0x3e, 0xc1, 0x9a, 0x32, 0x3e,
  0x86, 0x09, 0x30, 0xbe, 0x6d, 0xff, 0x11, 0xbf, 0xa7, 0x1d, 0x83, 0x3c,
  0xdd, 0x21, 0x3d, 0xbf, 0x4e, 0xa3, 0xdb, 0x3d, 0xd8, 0x32, 0x90, 0xbe,
  0xae, 0xec, 0x19, 0xbf, 0x65, 0x4a, 0xa6, 0x3d, 0x94, 0xc8, 0xc4, 0xbc,
  0x5e, 0xe6, 0xeb, 0x3c, 0xa8, 0xc9, 0xda, 0xba, 0x18, 0x95, 0x1b, 0xbd,
  0x08, 0x11, 0x03, 0xbe, 0x3e, 0x57, 0xc1, 0xbe, 0x00, 0x7a, 0xb9, 0x3c,
  0xda, 0x7e, 0x81, 0x3d, 0x11, 0xd2, 0x87, 0xbe, 0x02, 0x07, 0xd2, 0xbe,
  0x85, 0x07, 0xdb, 0x3c, 0xe2, 0xda, 0x65, 0xbe, 0xb7, 0x0b, 0x7b, 0x3d,
  0xad, 0xdf, 0xa4, 0x3d, 0x5b, 0x5f, 0xb9, 0x3e, 0x2a, 0xe2, 0x81, 0x3e,
  0xf8, 0x1b, 0x20, 0x3b, 0x49, 0xc0, 0x19, 0x3e, 0x52, 0x25, 0x91, 0x3d,
  0xe0, 0x99, 0x5f, 0xbd, 0xd2, 0xa0, 0xca, 0x3d, 0xa6, 0xc3, 0xa6, 0x3e,
  0x01, 0x46, 0x1d, 0xbe, 0xed, 0x39, 0x42, 0x3e, 0x13, 0xb8, 0x07, 0xbd,
  0xf3, 0x3e, 0x13, 0x3e, 0x6e, 0xad, 0x06, 0x3e, 0xbf, 0x3e, 0x4f, 0xbd,
  0xde, 0x47, 0xda, 0x3c, 0x53, 0x29, 0x35, 0xbe, 0x2f, 0x4a, 0xcb, 0x3d,
  0x89, 0x60, 0x61, 0xbc, 0x94, 0xff, 0x56, 0xbd, 0x0e, 0xec, 0x42, 0xbd,
  0x06, 0x20, 0x32, 0x3c, 0xfe, 0x29, 0x39, 0x3e, 0x7b, 0x2c, 0x30, 0x3e,
  0xe7, 0xcf, 0x94, 0x3c, 0xe5, 0xf2, 0x45, 0x3e, 0x3f, 0x40, 0x9a, 0x3c,
  0xdb, 0x87, 0x0a, 0xbe, 0xd5, 0x76, 0x27, 0x3e, 0xb9, 0xa0, 0x86, 0x3e,
  0xec, 0x6f, 0x34, 0xbd, 0xf0, 0x32, 0xb3, 0x3d, 0x72, 0xcb, 0x74, 0xbe,
  0x3a, 0xad, 0x9d, 0x3d, 0x8f, 0x75, 0xef, 0x3d, 0x1c, 0xe2, 0x41, 0xbc,
  0xd4, 0xc6, 0x39, 0x3d, 0xb0, 0xd8, 0x54, 0xba, 0xd6, 0xc2, 0x63, 0xbe,
  0x42, 0x4e, 0x76, 0x3d, 0xda, 0xdb, 0xdd, 0xbd, 0x18, 0x5c, 0xf6, 0x3d,
  0xd2, 0x1b, 0xc1, 0x3e, 0xd5, 0x01, 0xe4, 0xbc, 0xb6, 0x93, 0x50, 0x3e,
  0xbf, 0x77, 0x05, 0x3e, 0x7a, 0x04, 0x4e, 0xbc, 0x12, 0xc1, 0xfb, 0x3d,
  0x84, 0x60, 0x8c, 0xbe, 0x69, 0x36, 0x07, 0xbd, 0x92, 0xfa, 0x05, 0xbe,
  0x61, 0xbd, 0x40, 0xbe, 0x8d, 0xb8, 0xc5, 0xbb, 0xd8, 0x39, 0x6a, 0x3d,
  0x66, 0x8d, 0xdd, 0x3d, 0x11, 0x92, 0x0b, 0xbe, 0xd9, 0x06, 0x43, 0xbe,
  0xc9, 0xb7, 0x23, 0x3d, 0xe8, 0x70, 0x07, 0x3e, 0x73, 0x32, 0x06, 0x3d,
  0x74, 0x6b, 0x9b, 0x3e, 0x19, 0xb5, 0x1d, 0x3b, 0x34, 0x04, 0xb4, 0x3d,
  0x8a, 0xdf, 0x09, 0x3e, 0x91, 0x14, 0xf4, 0xbd, 0xd9, 0x52, 0x27, 0x3d,
  0x33, 0x6b, 0xbf, 0xbe, 0x2a, 0x33, 0xa9, 0xbe, 0x3c, 0xe4, 0x86, 0xbe,
  0x17, 0xbe, 0x7c, 0x3d, 0x19, 0x06, 0xec, 0x3d, 0x25, 0xc7, 0x02, 0x3c,
  0xbc, 0x19, 0x5a, 0xbe, 0x38, 0x56, 0x3e, 0xbe, 0xfd, 0x4e, 0x1b, 0xbf,
  0x44, 0x68, 0x16, 0xbe, 0x94, 0x48, 0x80, 0x3e, 0x57, 0x49, 0x8b, 0xbe,
  0x02, 0xb8, 0x42, 0x3e, 0xfa, 0x66, 0x1f, 0xbe, 0x67, 0xca, 0x1f, 0x3d,
  0xff, 0x59, 0xa0, 0xbc, 0xe2, 0x2b, 0x73, 0xbe, 0xdc, 0xa8, 0xce, 0x3d,
  0x6a, 0x67, 0xca, 0xbe, 0xa8, 0x95, 0x56, 0xbd, 0x51, 0x79, 0xa9, 0xbe,
  0x43, 0xbb, 0x92, 0xbe, 0x51, 0x03, 0xe8, 0x3d, 0x76, 0xa9, 0x4a, 0xbd,
  0x42, 0x77, 0xb4, 0xbe, 0x91, 0xd7, 0x27, 0x3e, 0x81, 0x03, 0x74, 0xbe,
  0x78, 0x98, 0xd2, 0xbe, 0x6a, 0x36, 0x09, 0x3d, 0xe2, 0xae, 0x81, 0xbe,
  0x86, 0x15, 0x33, 0x3e, 0xac, 0xfa, 0x2f, 0x3b, 0xe3, 0x97, 0xa8, 0x3e,
  0x43, 0x1f, 0x92, 0xbe, 0x12, 0x49, 0xb9, 0xbe, 0x72, 0x87, 0x59, 0xbe,
  0xd1, 0xd5, 0x06, 0xbd, 0x1f, 0x0b, 0x15, 0xbd, 0x1d, 0x55, 0xe3, 0xbc,
  0xaf, 0xcd, 0x06, 0x3e, 0x49, 0x17, 0x4e, 0xbe, 0xc3, 0x0d, 0x52, 0x3e,
  0x06, 0x5d, 0x8d, 0x3d, 0xc2, 0xe0, 0x66, 0x3d, 0x0c, 0x30, 0x4e, 0xbd,
  0x07, 0x80, 0x35, 0x3e, 0x9a, 0xeb, 0xd8, 0x3d, 0x00, 0xc2, 0x7c, 0x3e,
  0xe2, 0x7e, 0x1e, 0xbd, 0x7e, 0xca, 0xb4, 0xbe, 0x37, 0x09, 0x7e, 0xbe,
  0xcf, 0x85, 0xc6, 0xbe, 0xfb, 0xe3, 0x17, 0x3e, 0x90, 0x06, 0x74, 0x3d,
  0x6f, 0xf4, 0x71, 0xbd, 0xb0, 0xb6, 0xa9, 0x3e, 0x5d, 0x74, 0x47, 0xbe,
  0x48, 0xc1, 0x85, 0x3e, 0x2d, 0x08, 0xd9, 0x3c, 0xa3, 0xe0, 0xb7, 0x3d,
  0xbe, 0xd7, 0xb4, 0xbb, 0xe2, 0xf5, 0x25, 0x3e, 0xe5, 0xed, 0xa8, 0x3e,
  0xa4, 0xa0, 0xc4, 0x3e, 0x4c, 0xd7, 0x20, 0xbe, 0x68, 0x4a, 0xb6, 0xbe,
  0x18, 0x31, 0xfe, 0x3b, 0x2e, 0x53, 0x1a, 0xbe, 0xda, 0xf9, 0xb9, 0x3e,
  0x21, 0xb8, 0x94, 0xbe, 0x8d, 0x39, 0xfe, 0xbd, 0x6a, 0x5f, 0x52, 0x3e,
  0x7a, 0x9a, 0xe4, 0xbd, 0x92, 0x07, 0x27, 0x3e, 0x97, 0x8a, 0x53, 0xbd,
  0xef, 0xea, 0xf2, 0xbd, 0x84, 0x49, 0x09, 0x3c, 0x26, 0xe6, 0x6b, 0x3d,
  0x65, 0xd8, 0x50, 0x3e, 0x5c, 0x9c, 0xb5, 0x3e, 0x98, 0x29, 0x75, 0xbe,
  0xa1, 0x71, 0x11, 0xbe, 0xf6, 0x3a, 0x1f, 0xbe, 0xfe, 0x1e, 0x6e, 0x3d,
  0x27, 0xea, 0x94, 0x3e, 0x35, 0x98, 0x8f, 0xbd, 0xe5, 0x05, 0xb8, 0xbd,
  0x24, 0x45, 0x7d, 0x3e, 0x76, 0xb7, 0x02, 0xbe, 0xf9, 0xe2, 0x52, 0x3e,
  0xad, 0x9a, 0x92, 0xbd, 0x01, 0x89, 0xa1, 0xbe, 0x53, 0x90, 0x05, 0x3b,
  0x76, 0x7f, 0xd1, 0xbe, 0x98, 0x3f, 0x79, 0x3e, 0x58, 0x02, 0x87, 0x3e,
  0x64, 0x4c, 0xbd, 0xbe, 0x89, 0xa6, 0x6c, 0xbe, 0x54, 0x52, 0x8f, 0xbe,
  0x1e, 0x4b, 0xbe, 0xbd, 0x7d, 0xbd, 0x05, 0x3e, 0xfc, 0xcb, 0x99, 0xbd,
  0xe9, 0xd3, 0x74, 0xbd, 0x52, 0xfe, 0xf6, 0x3e, 0x30, 0x77, 0x3d, 0xbe,
  0x9a, 0xee, 0x7e, 0x3e, 0xc6, 0xd7, 0x92, 0xbd, 0xb9, 0xed, 0x0c, 0xbe,
  0xcf, 0xc3, 0x02, 0xbc, 0x5e, 0xa3, 0xc6, 0x3b, 0xb3, 0x48, 0xa4, 0x3e,
  0x2c, 0xe5, 0xda, 0x3e, 0xa2, 0x4b, 0xd4, 0xbe, 0xc0, 0xaa, 0xeb, 0xbe,
  0x4b, 0x21, 0x8a, 0xbe, 0x1c, 0xda, 0xad, 0xbb, 0x1a, 0xbe, 0xbe, 0x3c,
  0xe5, 0xdc, 0x8a, 0xbd, 0x29, 0x74, 0x18, 0xbe, 0xea, 0x77, 0x84, 0x3e,
  0x1c, 0xf3, 0x78, 0xbe, 0x17, 0x92, 0x55, 0xbd, 0x9b, 0xff, 0xae, 0xbb,
  0x3b, 0x03, 0x7e, 0xbe, 0x79, 0x08, 0xa6, 0xbb, 0x4a, 0x77, 0xd8, 0xbd,
  0x96, 0x4e, 0xa4, 0x3c, 0xed, 0xf1, 0x45, 0x3e, 0xc9, 0x5b, 0x70, 0xbe,
  0x63, 0x33, 0x36, 0xbe, 0x1b, 0xcd, 0xb2, 0xbd, 0x42, 0x83, 0x36, 0x3d,
  0x71, 0xde, 0xdc, 0xba, 0x07, 0xc4, 0x7c, 0xbe, 0xa8, 0xad, 0x00, 0xbe,
  0x4f, 0xaa, 0xa5, 0x3c, 0xd0, 0xbf, 0x28, 0xbe, 0xa6, 0x93, 0x0b, 0x3e,
  0x6d, 0x7f, 0x3a, 0xbd, 0x2a, 0xdd, 0x07, 0xbf, 0xd9, 0x84, 0xd3, 0x3d,
  0x1e, 0x8b, 0x8d, 0xbe, 0x74, 0xc6, 0xc3, 0x3d, 0x43, 0xca, 0x1b, 0xbe,
  0x99, 0x5e, 0x83, 0x3e, 0xa6, 0xcb, 0x8b, 0xbe, 0xd1, 0x6c, 0xcd, 0xbe,
  0xc0, 0xdd, 0xb5, 0xbe, 0x89, 0x45, 0xd8, 0xbd, 0x7a, 0xf0, 0x17, 0x3e,
  0xdf, 0xf9, 0xe4, 0x3b, 0x6b, 0x85, 0x0e, 0x3e, 0x47, 0x31, 0xb9, 0xbd,
  0x76, 0x43, 0x86, 0x3e, 0x69, 0x46, 0x3f, 0x3d, 0x8d, 0x04, 0x57, 0x3e,
  0x9c, 0xc1, 0x3a, 0xbd, 0xd7, 0x68, 0x19, 0x3d, 0x69, 0xb9, 0x58, 0xbe,
  0x7b, 0xd1, 0x77, 0x3e, 0x20, 0x18, 0xae, 0xbe, 0x0e, 0xcb, 0x3f, 0xbe,
  0xf3, 0x1d, 0xce, 0xbe, 0x0f, 0x68, 0xb3, 0xbe, 0x1a, 0x1f, 0x81, 0x3e,
  0xfc, 0xf0, 0xe2, 0xbd, 0x75, 0x48, 0x4a, 0xbe, 0xbe, 0x10, 0x5c, 0x3e,
  0xb5, 0xbe, 0xe7, 0xbd, 0x00, 0xe2, 0x3f, 0x3e, 0x97, 0x02, 0x2a, 0x3d,
  0x63, 0x81, 0x91, 0x3d, 0x1b, 0x46, 0x24, 0xbd, 0x7b, 0xf0, 0x9d, 0x3e,
  0xa6, 0x20, 0x44, 0x3e, 0x56, 0xa8, 0x01, 0x3f, 0x22, 0xb5, 0xf7, 0xbd,
  0x03, 0x52, 0x8a, 0xbe, 0xfa, 0x5f, 0x2d, 0xbe, 0xee, 0xf2, 0x27, 0xbe,
  0xfd, 0xbf, 0xea, 0x3e, 0xd7, 0x2d, 0x52, 0xbe, 0x82, 0x64, 0xc8, 0xbd,
  0x87, 0x97, 0x72, 0x3e, 0x48, 0xad, 0xaa, 0xbe, 0x71, 0xe9, 0xdf, 0x3d,
  0xa5, 0x41, 0x29, 0x3d, 0x77, 0x19, 0x7d, 0x3d, 0x70, 0x16, 0x42, 0xbd,
  0x2c, 0x13, 0x1a, 0xbe, 0x94, 0xf4, 0x23, 0x3e, 0x08, 0x8a, 0x84, 0x3e,
  0x8c, 0x5e, 0xd9, 0xbe, 0xa2, 0xe2, 0xa9, 0xbe, 0xab, 0x9e, 0x31, 0xbe,
  0x6a, 0x0e, 0x22, 0xbe, 0xce, 0x7b, 0x66, 0x3d, 0x1f, 0x0b, 0x12, 0xbe,
  0xb1, 0x1e, 0xb0, 0xbb, 0x39, 0x29, 0x0d, 0x3e, 0xab, 0xca, 0xc8, 0xbe,
  0x30, 0xcc, 0x93, 0x3e, 0x97, 0x20, 0x33, 0xbd, 0xee, 0x66, 0x74, 0xbe,
  0x73, 0xab, 0xf7, 0xbc, 0xc1, 0xe2, 0xc0, 0xbe, 0x67, 0x69, 0xb0, 0x3e,
  0x08, 0x5f, 0x92, 0x3e, 0x7f, 0xfd, 0x81, 0xbe, 0xe5, 0x86, 0xce, 0xbe,
  0xd6, 0x5d, 0xce, 0xbe, 0x51, 0x2c, 0x99, 0xbe, 0xf2, 0x52, 0x44, 0xbd,
  0x31, 0x3b, 0xa9, 0xbe, 0xfa, 0xb1, 0x92, 0xbd, 0x04, 0x78, 0x16, 0x3e,
  0x0b, 0x60, 0x92, 0xbe, 0x4d, 0x04, 0x86, 0x3e, 0x77, 0x60, 0x6a, 0xbd,
  0x37, 0xc1, 0xf7, 0xbe, 0xd1, 0xad, 0x90, 0xbd, 0xd0, 0xe6, 0x7a, 0xbe,
  0xd9, 0xc2, 0x90, 0x3e, 0xda, 0x42, 0x8d, 0x3e, 0x89, 0x3b, 0x2f, 0xbe,
  0x9b, 0xbb, 0x99, 0xbe, 0xf4, 0x2a, 0x21, 0xbf, 0x3f, 0x34, 0xb7, 0xbe,
  0x4f, 0x4c, 0xb9, 0xbd, 0x80, 0x92, 0xb0, 0xbe, 0xee, 0x44, 0x7d, 0xbe,
  0x64, 0xf8, 0x96, 0x3e, 0xcc, 0xdd, 0xbd, 0xbe, 0x0c, 0x04, 0x73, 0x3d,
  0x76, 0x83, 0x55, 0x3c, 0xb7, 0xc4, 0xef, 0xbc, 0x41, 0x42, 0x4d, 0xbd,
  0xfd, 0x69, 0xec, 0xbd, 0x39, 0xfe, 0x03, 0x3d, 0xa4, 0xff, 0x3d, 0x3e,
  0x9d, 0x40, 0xf5, 0xbd, 0x4d, 0x22, 0x2a, 0x3c, 0x5e, 0x48, 0x29, 0xbe,
  0x4f, 0x72, 0x5e, 0xbc, 0xb9, 0xf9, 0x9f, 0x3c, 0x74, 0x51, 0x9c, 0xbe,
  0xc9, 0xe8, 0x8a, 0xbd, 0x69, 0x3f, 0xaf, 0xbe, 0x59, 0x64, 0xaf, 0x3d,
  0x25, 0xd0, 0xd4, 0x3d, 0x16, 0xbf, 0x9b, 0x3e, 0x9c, 0xee, 0x28, 0x3e,
  0xf8, 0x63, 0x13, 0x3d, 0x6b, 0xcc, 0x36, 0x3c, 0xca, 0x85, 0x2d, 0xbe,
  0x27, 0x22, 0xf2, 0xbc, 0xc9, 0x14, 0x1b, 0xbe, 0x4e, 0xb0, 0x82, 0x3d,
  0xf1, 0x44, 0xfd, 0x3c, 0xac, 0x47, 0x7d, 0xbd, 0x04, 0x34, 0x1b, 0x3e,
  0x90, 0x08, 0xe9, 0x3e, 0x1f, 0x0c, 0xb8, 0x3c, 0xac, 0xa6, 0x83, 0x3d,
  0xc4, 0x11, 0x2c, 0xbe, 0xc6, 0xfd, 0x8c, 0xbc, 0xe0, 0x66, 0x2b, 0x3d,
  0x48, 0x84, 0xcb, 0xbe, 0xe2, 0x1a, 0xc4, 0xbc, 0x04, 0x46, 0x9e, 0xbe,
  0xf4, 0x44, 0xce, 0xbe, 0xf5, 0xcd, 0x15, 0xbf, 0x5a, 0x48, 0x54, 0xbd,
  0xe3, 0x48, 0x0a, 0xbc, 0xee, 0x96, 0x8e, 0xbd, 0x24, 0x23, 0xc0, 0xbe,
  0x9c, 0x2f, 0x38, 0xbe, 0x0d, 0x03, 0x3f, 0xbe, 0x57, 0xce, 0x8b, 0xbd,
  0x19, 0x82, 0x84, 0xbe, 0xb9, 0x83, 0x0f, 0xbe, 0xd7, 0xdd, 0xa8, 0xbe,
  0xf8, 0x0c, 0x5b, 0xbd, 0xea, 0x3b, 0x82, 0x3c, 0x07, 0xde, 0x31, 0xbc,
  0x88, 0x7a, 0x67, 0xbe, 0xa6, 0x8a, 0xc2, 0xbe, 0x93, 0x53, 0x30, 0xbf,
  0x90, 0x1a, 0x1a, 0xbe, 0x9e, 0xbe, 0x37, 0xbd, 0x3c, 0x07, 0xbf, 0x3c,
  0x8d, 0x47, 0x0a, 0xbe, 0xfe, 0xb0, 0xb0, 0xbe, 0x39, 0xab, 0x8d, 0xbe,
  0xd1, 0x70, 0x32, 0xbc, 0xfb, 0x01, 0x52, 0xbe, 0x7a, 0x0f, 0xa0, 0xbe,
  0xef, 0xd9, 0x18, 0xbf, 0xa4, 0xa2, 0x66, 0xbd, 0xde, 0x64, 0xc4, 0x3c,
  0x2a, 0x32, 0xfb, 0xbc, 0x04, 0x0c, 0x6a, 0xbe, 0x89, 0x39, 0x0a, 0xbe,
  0x90, 0x76, 0x45, 0xbf, 0xe1, 0xea, 0x32, 0x3e, 0xaa, 0x8b, 0xa4, 0xbd,
  0x39, 0x15, 0x40, 0xbb, 0xb6, 0xc7, 0x67, 0xbe, 0xec, 0x9b, 0x5b, 0xbe,
  0x9a, 0x27, 0x92, 0x3d, 0x8a, 0x00, 0x23, 0x3d, 0x08, 0x5c, 0x80, 0xbe,
  0xe5, 0x9c, 0x5b, 0x3e, 0xad, 0x51, 0x2f, 0xbf, 0xb8, 0x72, 0x23, 0xbd,
  0x9d, 0x3a, 0x88, 0x3e, 0xb2, 0x12, 0x48, 0x3c, 0xaa, 0x16, 0xf2, 0xbd,
  0x49, 0x3a, 0xde, 0x3d, 0xf4, 0x68, 0x59, 0x3d, 0x6f, 0xef, 0xa3, 0x3e,
  0x79, 0x3e, 0x3a, 0x3b, 0x56, 0x8f, 0xe9, 0x3b, 0x36, 0xf7, 0x2e, 0xbd,
  0x57, 0xaa, 0x77, 0x3e, 0x77, 0xaa, 0x2f, 0x3e, 0x63, 0x6f, 0xad, 0x3c,
  0x34, 0x88, 0x00, 0xbe, 0x74, 0xdd, 0x2c, 0x3e, 0x10, 0x41, 0xd1, 0xbe,
  0x2c, 0x29, 0x32, 0xbd, 0xd9, 0x13, 0x78, 0x3e, 0x06, 0xae, 0x6b, 0xbc,
  0x4b, 0x63, 0x91, 0xbd, 0x2b, 0xa3, 0x5b, 0xbd, 0x95, 0x0e, 0x5d, 0xbc,
  0x00, 0xc9, 0xae, 0x3e, 0x8b, 0xf8, 0x06, 0xbd, 0xcf, 0x47, 0x76, 0x3d,
  0xb0, 0x61, 0x66, 0xbc, 0x6a, 0xf3, 0x9e, 0x3e, 0x6a, 0x9c, 0x02, 0x3f,
  0x22, 0xb0, 0x33, 0x3e, 0xd8, 0xa6, 0x17, 0x3e, 0xed, 0x31, 0x17, 0x3e,
  0xc5, 0x14, 0x43, 0xbd, 0x71, 0xda, 0x49, 0xbd, 0x04, 0xf3, 0x81, 0x3c,
  0x87, 0x2e, 0x2f, 0x3d, 0xd8, 0x51, 0x8c, 0x3d, 0x56, 0xaa, 0x3e, 0x3e,
  0x3a, 0x07, 0x8b, 0x3d, 0xd9, 0x9a, 0xa3, 0x3e, 0x5f, 0x1e, 0xe6, 0x3b,
  0xfc, 0x1c, 0x0f, 0x3e, 0x05, 0x18, 0x13, 0x3d, 0x4e, 0x59, 0xb5, 0x3d,
  0x40, 0xdd, 0x1c, 0x3e, 0xf7, 0x86, 0xcc, 0x3d, 0x4c, 0xcb, 0x5f, 0xbe,
  0x9e, 0xd8, 0x4a, 0xbe, 0x24, 0x00, 0x0f, 0xbe, 0xba, 0xe3, 0xad, 0xbd,
  0x05, 0x25, 0xe9, 0x3c, 0xd7, 0xf3, 0xa5, 0xbe, 0xc4, 0x88, 0x0e, 0xbe,
  0xbc, 0xdb, 0x43, 0xbd, 0x13, 0x19, 0xaa, 0xbd, 0x43, 0x71, 0x41, 0xbe,
  0xbf, 0x50, 0x95, 0xbe, 0x91, 0x69, 0x13, 0xbe, 0xd7, 0x8e, 0xa7, 0xbc,
  0x0d, 0xf7, 0x08, 0xbe, 0x70, 0x1d, 0x07, 0x3e, 0xde, 0x58, 0x18, 0xbe,
  0x57, 0x58, 0x60, 0x3d, 0x30, 0x3f, 0x20, 0xbe, 0xd5, 0x81, 0x8f, 0x3d,
  0xef, 0x71, 0x2f, 0xbe, 0x62, 0x50, 0x1b, 0xbe, 0x53, 0xc1, 0x53, 0xbe,
  0xc2, 0x5f, 0x6f, 0xbd, 0x6f, 0x21, 0x02, 0x3e, 0x5b, 0x01, 0x4a, 0xbd,
  0xa3, 0x5d, 0xf2, 0x3d, 0x08, 0xa9, 0xd7, 0x3c, 0x83, 0xd7, 0x4c, 0x3e,
  0x6b, 0xeb, 0xf3, 0xbc, 0xfc, 0xf7, 0xa7, 0xbc, 0x0a, 0x20, 0xf3, 0xbd,
  0x2a, 0x8e, 0x91, 0xbc, 0x39, 0xb0, 0x42, 0x3d, 0x23, 0x09, 0x1d, 0xbd,
  0xaf, 0x49, 0x5f, 0xbe, 0xdf, 0x2d, 0x97, 0x3c, 0xcc, 0x9c, 0x4b, 0x3e,
  0xc9, 0x9f, 0x3a, 0xbe, 0xf4, 0x20, 0xfe, 0xbd, 0xe2, 0xd6, 0xc1, 0x3d,
  0x19, 0x82, 0x90, 0xbd, 0x21, 0xf0, 0x16, 0x3e, 0xd4, 0x13, 0xc1, 0xbb,
  0xf8, 0xb4, 0x0e, 0x3e, 0xea, 0xa9, 0xd0, 0xbd, 0x5f, 0x14, 0x31, 0x3e,
  0xf0, 0x17, 0x0a, 0x3e, 0xe5, 0xc4, 0x13, 0x3e, 0x9c, 0x7a, 0x1f, 0xbd,
  0xff, 0x90, 0x9a, 0xbd, 0x63, 0x36, 0x3d, 0x3d, 0xc4, 0xb1, 0x07, 0xbe,
  0xd3, 0xa9, 0x57, 0x3d, 0xf8, 0xbc, 0x34, 0xbe, 0x9b, 0x16, 0x65, 0xbe,
  0x4b, 0xc3, 0x5c, 0x3e, 0x9a, 0xce, 0x45, 0xbd, 0x9f, 0x45, 0xfd, 0xbd,
  0xae, 0x54, 0x21, 0xbe, 0x26, 0x3b, 0x7f, 0xbd, 0x8a, 0x22, 0x16, 0xbe,
  0xb0, 0xd1, 0x79, 0x3d, 0x7c, 0x17, 0x45, 0xbe, 0x6f, 0x13, 0x4c, 0xbd,
  0x57, 0x72, 0x71, 0x3a, 0xfd, 0x64, 0x77, 0x3d, 0xee, 0x00, 0x51, 0xbe,
  0x9a, 0xd0, 0xfb, 0xbd, 0x9d, 0x0d, 0xb2, 0xbd, 0x17, 0x23, 0x44, 0xbe,
  0x42, 0x64, 0x33, 0xbe, 0xa5, 0xcf, 0x1a, 0x3e, 0xd5, 0xdf, 0xee, 0xbc,
  0x2f, 0xdf, 0x6e, 0xbe, 0xc9, 0x30, 0x9b, 0xbe, 0x64, 0x6e, 0x98, 0x3c,
  0xe8, 0x1d, 0x0d, 0x3d, 0xb7, 0x05, 0xa7, 0x3d, 0x0a, 0xcb, 0xfb, 0x3b,
  0x2c, 0x7f, 0xb6, 0x3d, 0xf0, 0x19, 0x2f, 0xbe, 0x2f, 0x99, 0x29, 0xbd,
  0x99, 0x46, 0x32, 0x3e, 0x57, 0x81, 0x7f, 0xbd, 0x8b, 0x54, 0xfb, 0x3d,
  0xb2, 0x05, 0x45, 0xbe, 0x16, 0x81, 0x01, 0xbe, 0x24, 0xd4, 0x6f, 0x3d,
  0x51, 0xfb, 0x14, 0xbe, 0xe0, 0xc4, 0x1e, 0x3d, 0xd9, 0x61, 0x63, 0xbe,
  0x25, 0xd8, 0x95, 0xbd, 0xd0, 0x01, 0x36, 0xbe, 0xb2, 0x28, 0x85, 0xbe,
  0xa4, 0x03, 0x17, 0x3d, 0x93, 0x3a, 0x2f, 0x3d, 0xda, 0x61, 0x18, 0x3d,
  0xc8, 0x89, 0xd5, 0xbd, 0x37, 0xbc, 0x9e, 0xbd, 0x8a, 0xcd, 0x33, 0x3d,
  0xe9, 0xc4, 0x42, 0x3c, 0xcf, 0x66, 0xda, 0xbd, 0xfc, 0xa0, 0xb7, 0xbc,
  0x0f, 0xe7, 0xa7, 0xbc, 0x47, 0xdc, 0xf3, 0xbc, 0x34, 0x4e, 0x8c, 0xbd,
  0x3c, 0xdc, 0x89, 0xbe, 0x1d, 0x8f, 0xbc, 0xbc, 0x13, 0x45, 0x5e, 0xbe,
  0x77, 0xb5, 0x8e, 0x3d, 0x55, 0x41, 0x4a, 0xbe, 0xce, 0x0b, 0x63, 0xbe,
  0x7f, 0xe6, 0x5f, 0x3e, 0xfe, 0x87, 0x32, 0x3d, 0xaa, 0x77, 0x84, 0xbe,
  0x35, 0x43, 0x9a, 0xbe, 0xf0, 0x9f, 0x11, 0x3d, 0x36, 0xef, 0xc7, 0xbe,
  0x51, 0x56, 0x80, 0x3b, 0xa4, 0xd0, 0xc1, 0xbe, 0x61, 0x25, 0xc0, 0xbd,
  0x1a, 0x98, 0x05, 0xbc, 0x80, 0x56, 0x9c, 0xbe, 0x44, 0xb6, 0x83, 0xbe,
  0x99, 0x0a, 0xab, 0xbd, 0xe5, 0xb2, 0x2f, 0x3c, 0x31, 0x3b, 0x0d, 0x3e,
  0x47, 0x89, 0x2e, 0xbe, 0x5d, 0x20, 0x5a, 0x3f, 0xfc, 0xa6, 0x91, 0x3e,
  0xe9, 0xf9, 0xb4, 0xbd, 0xa7, 0xfa, 0x9a, 0xbe, 0x44, 0xef, 0x66, 0xbe,
  0xfa, 0x9f, 0x3c, 0xbe, 0x0a, 0x86, 0x1c, 0xbd, 0x4a, 0x8e, 0x32, 0x3e,
  0xc7, 0xe7, 0xfa, 0x3e, 0x87, 0x11, 0x2c, 0x3c, 0x77, 0xc9, 0x9d, 0xbe,
  0xbc, 0x60, 0x48, 0xbe, 0xcb, 0x85, 0x9e, 0xbe, 0x5f, 0x06, 0xd8, 0xbd,
  0xd8, 0x5f, 0x4a, 0xbc, 0x9a, 0x59, 0xc6, 0xbd, 0x43, 0xfb, 0x31, 0x3f,
  0xbd, 0x58, 0x68, 0x3e, 0x45, 0x2b, 0x86, 0xbe, 0x6a, 0xee, 0x55, 0xbe,
  0x16, 0x73, 0x14, 0xbe, 0xf7, 0x0e, 0x81, 0xbe, 0xdb, 0xa2, 0x53, 0xbe,
  0x70, 0xc6, 0x24, 0x3d, 0x2f, 0x9e, 0xeb, 0x3e, 0xfb, 0xf7, 0x1a, 0x3e,
  0x2a, 0xd9, 0x2d, 0xbe, 0xf7, 0x5f, 0x41, 0xbd, 0x23, 0xcb, 0x49, 0xbe,
  0x81, 0xae, 0x33, 0x3c, 0xcb, 0x57, 0xf4, 0xbd, 0x99, 0xfd, 0xda, 0xbd,
  0xbb, 0x4e, 0x32, 0x3f, 0x03, 0x76, 0x94, 0x3e, 0x84, 0x83, 0x46, 0xbe,
  0x3f, 0xfe, 0x9c, 0xbe, 0x75, 0x4f, 0xd5, 0xbd, 0xd3, 0x6f, 0xcc, 0xbe,
  0x9b, 0x26, 0x48, 0xbe, 0xf6, 0xe2, 0xcc, 0xbd, 0xc3, 0x20, 0x29, 0x3f,
  0xff, 0xdb, 0x0a, 0xbe, 0xeb, 0x22, 0x1f, 0xbe, 0x53, 0xbb, 0x1e, 0xbe,
  0x92, 0xee, 0x9b, 0xbd, 0xca, 0x77, 0x86, 0xbb, 0xa9, 0x0a, 0xc0, 0x3d,
  0xb3, 0xde, 0x34, 0xbc, 0xcd, 0x7c, 0x04, 0x3f, 0x06, 0xd0, 0xb9, 0xbc,
  0x47, 0xc7, 0x0e, 0xbe, 0x02, 0xa5, 0x7f, 0xbe, 0x73, 0xe8, 0x84, 0xbe,
  0x75, 0xb8, 0x14, 0xbe, 0x54, 0x8b, 0x7f, 0xbd, 0xe6, 0xa3, 0x8d, 0xbe,
  0x93, 0xb7, 0xe7, 0x3e, 0x8d, 0xc6, 0x66, 0x38, 0x3c, 0xae, 0xcb, 0xbd,
  0x54, 0xf6, 0x02, 0x3d, 0x11, 0xe7, 0x23, 0xbe, 0x3b, 0x6b, 0x2a, 0xbc,
  0x92, 0xb5, 0x7b, 0xbd, 0x20, 0x4c, 0x87, 0xbe, 0x8c, 0x22, 0x51, 0x3f,
  0x94, 0xa3, 0x19, 0x3c, 0x32, 0x1c, 0x4e, 0xbe, 0x36, 0x81, 0x3f, 0x3d,
  0x19, 0xa5, 0x15, 0xbe, 0x84, 0x3c, 0x89, 0xbe, 0x98, 0x49, 0x18, 0xbe,
  0x3d, 0xf0, 0x53, 0xbd, 0x4d, 0x04, 0x7c, 0x3e, 0xf9, 0xee, 0x5f, 0x3d,
  0xc8, 0x7f, 0x62, 0xbe, 0x04, 0x1e, 0xbd, 0xbe, 0x5c, 0xa3, 0x4d, 0xbe,
  0x54, 0x8a, 0xf6, 0xbd, 0xdd, 0xff, 0xb8, 0x3d, 0x5b, 0x1a, 0x86, 0xbe,
  0xc9, 0x1f, 0x15, 0x3f, 0xed, 0xbb, 0x56, 0x3e, 0x84, 0xb5, 0x6e, 0xbe,
  0x4a, 0x57, 0x34, 0xbe, 0x94, 0x02, 0x3a, 0xbe, 0x54, 0x69, 0xcb, 0xbe,
  0xf1, 0xb7, 0xa7, 0xbd, 0xfe, 0xa7, 0x3c, 0xbe, 0x33, 0x7d, 0x33, 0x3d,
  0x0e, 0xc6, 0xc0, 0x3c, 0x88, 0x84, 0xa2, 0xbe, 0x22, 0x45, 0x91, 0xbd,
  0x6c, 0x4b, 0x80, 0xbe, 0x43, 0x41, 0x82, 0x3b, 0x9f, 0x9b, 0x25, 0xbe,
  0xf2, 0x6f, 0x9d, 0xbd, 0x62, 0xfd, 0xff, 0xff, 0x10, 0x00, 0x00, 0x00,
  0x07, 0x00, 0x00, 0x00, 0x14, 0x00, 0x00, 0x00, 0x2c, 0x00, 0x00, 0x00,
  0x02, 0x00, 0x00, 0x00, 0x10, 0x00, 0x00, 0x00, 0x70, 0x00, 0x00, 0x00,
  0x17, 0x00, 0x00, 0x00, 0x73, 0x65, 0x71, 0x75, 0x65, 0x6e, 0x74, 0x69,
  0x61, 0x6c, 0x2f, 0x64, 0x65, 0x6e, 0x73, 0x65, 0x2f, 0x4d, 0x61, 0x74,
  0x4d, 0x75, 0x6c, 0x00, 0xcc, 0xfc, 0xff, 0xff, 0xd6, 0xfd, 0xff, 0xff,
  0x04, 0x00, 0x00, 0x00, 0x08, 0x00, 0x00, 0x00, 0xff, 0xff, 0xff, 0xff,
  0x70, 0x00, 0x00, 0x00, 0x00, 0x00, 0x0e, 0x00, 0x18, 0x00, 0x08, 0x00,
  0x07, 0x00, 0x0c, 0x00, 0x10, 0x00, 0x14, 0x00, 0x0e, 0x00, 0x00, 0x00,
  0x00, 0x00, 0x00, 0x02, 0x10, 0x00, 0x00, 0x00, 0x06, 0x00, 0x00, 0x00,
  0x10, 0x00, 0x00, 0x00, 0x2c, 0x00, 0x00, 0x00, 0x01, 0x00, 0x00, 0x00,
  0x02, 0x00, 0x00, 0x00, 0x18, 0x00, 0x00, 0x00, 0x73, 0x65, 0x71, 0x75,
  0x65, 0x6e, 0x74, 0x69, 0x61, 0x6c, 0x2f, 0x66, 0x6c, 0x61, 0x74, 0x74,
  0x65, 0x6e, 0x2f, 0x43, 0x6f, 0x6e, 0x73, 0x74, 0x00, 0x00, 0x00, 0x00,
  0x34, 0xfd, 0xff, 0xff, 0x3e, 0xfe, 0xff, 0xff, 0x04, 0x00, 0x00, 0x00,
  0x10, 0x00, 0x00, 0x00, 0xa9, 0xd6, 0x71, 0xc0, 0x62, 0xdb, 0x38, 0xc0,
  0xbf, 0xa4, 0x40, 0x3f, 0xab, 0x3f, 0x08, 0x40, 0x26, 0xfe, 0xff, 0xff,
  0x10, 0x00, 0x00, 0x00, 0x05, 0x00, 0x00, 0x00, 0x10, 0x00, 0x00, 0x00,
  0x44, 0x00, 0x00, 0x00, 0x01, 0x00, 0x00, 0x00, 0x04, 0x00, 0x00, 0x00,
  0x32, 0x00, 0x00, 0x00, 0x73, 0x65, 0x71, 0x75, 0x65, 0x6e, 0x74, 0x69,
  0x61, 0x6c, 0x2f, 0x64, 0x65, 0x6e, 0x73, 0x65, 0x5f, 0x31, 0x2f, 0x42,
  0x69, 0x61, 0x73, 0x41, 0x64, 0x64, 0x2f, 0x52, 0x65, 0x61, 0x64, 0x56,
  0x61, 0x72, 0x69, 0x61, 0x62, 0x6c, 0x65, 0x4f, 0x70, 0x2f, 0x72, 0x65,
  0x73, 0x6f, 0x75, 0x72, 0x63, 0x65, 0x00, 0x00, 0xa8, 0xfd, 0xff, 0xff,
  0xb2, 0xfe, 0xff, 0xff, 0x04, 0x00, 0x00, 0x00, 0x40, 0x00, 0x00, 0x00,
  0xbf, 0xd3, 0xc1, 0xbf, 0x6b, 0xcb, 0x1a, 0x40, 0xd2, 0x28, 0xa0, 0x3f,
  0xd3, 0x08, 0x77, 0xbe, 0x61, 0x40, 0x92, 0xbe, 0x16, 0x78, 0x84, 0xbf,
  0x78, 0xed, 0x11, 0x40, 0x14, 0xec, 0x38, 0x40, 0xd3, 0xa3, 0xa7, 0xbe,
  0xe1, 0x6e, 0xda, 0xbd, 0x4c, 0x92, 0xc8, 0x3d, 0xae, 0xb8, 0xae, 0xbe,
  0x36, 0x5f, 0x77, 0x3f, 0xeb, 0xc7, 0x29, 0xbf, 0x2c, 0x51, 0x62, 0xbe,
  0xaa, 0x02, 0xb7, 0x3e, 0xca, 0xfe, 0xff, 0xff, 0x10, 0x00, 0x00, 0x00,
  0x04, 0x00, 0x00, 0x00, 0x10, 0x00, 0x00, 0x00, 0x44, 0x00, 0x00, 0x00,
  0x01, 0x00, 0x00, 0x00, 0x10, 0x00, 0x00, 0x00, 0x30, 0x00, 0x00, 0x00,
  0x73, 0x65, 0x71, 0x75, 0x65, 0x6e, 0x74, 0x69, 0x61, 0x6c, 0x2f, 0x64,
  0x65, 0x6e, 0x73, 0x65, 0x2f, 0x42, 0x69, 0x61, 0x73, 0x41, 0x64, 0x64,
  0x2f, 0x52, 0x65, 0x61, 0x64, 0x56, 0x61, 0x72, 0x69, 0x61, 0x62, 0x6c,
  0x65, 0x4f, 0x70, 0x2f, 0x72, 0x65, 0x73, 0x6f, 0x75, 0x72, 0x63, 0x65,
  0x00, 0x00, 0x00, 0x00, 0x4c, 0xfe, 0xff, 0xff, 0x56, 0xff, 0xff, 0xff,
  0x04, 0x00, 0x00, 0x00, 0x40, 0x00, 0x00, 0x00, 0x3b, 0x34, 0x89, 0x3f,
  0x9c, 0x11, 0x3f, 0x3d, 0xe2, 0x88, 0x59, 0xbf, 0x8b, 0xd4, 0x98, 0xbe,
  0x7c, 0xbf, 0xa1, 0xbf, 0xa0, 0xe8, 0xf0, 0xbd, 0x22, 0x6c, 0xba, 0xbb,
  0xfb, 0x58, 0xbd, 0xbf, 0xe9, 0xb0, 0x4f, 0x40, 0x26, 0x2f, 0x19, 0xbf,
  0x30, 0x49, 0xc7, 0xbc, 0x32, 0x30, 0x10, 0xbd, 0xe8, 0x9d, 0x7d, 0x3c,
  0x5f, 0xa9, 0xa0, 0xbf, 0x19, 0x62, 0x81, 0xbf, 0x75, 0x59, 0x4a, 0xbd,
  0x6e, 0xff, 0xff, 0xff, 0x10, 0x00, 0x00, 0x00, 0x03, 0x00, 0x00, 0x00,
  0x10, 0x00, 0x00, 0x00, 0x48, 0x00, 0x00, 0x00, 0x01, 0x00, 0x00, 0x00,
  0x10, 0x00, 0x00, 0x00, 0x33, 0x00, 0x00, 0x00, 0x73, 0x65, 0x71, 0x75,
  0x65, 0x6e, 0x74, 0x69, 0x61, 0x6c, 0x2f, 0x63, 0x6f, 0x6e, 0x76, 0x32,
  0x64, 0x5f, 0x31, 0x2f, 0x42, 0x69, 0x61, 0x73, 0x41, 0x64, 0x64, 0x2f,
  0x52, 0x65, 0x61, 0x64, 0x56, 0x61, 0x72, 0x69, 0x61, 0x62, 0x6c, 0x65,
  0x4f, 0x70, 0x2f, 0x72, 0x65, 0x73, 0x6f, 0x75, 0x72, 0x63, 0x65, 0x00,
  0x04, 0x00, 0x06, 0x00, 0x04, 0x00, 0x00, 0x00, 0x00, 0x00, 0x06, 0x00,
  0x08, 0x00, 0x04, 0x00, 0x06, 0x00, 0x00, 0x00, 0x04, 0x00, 0x00, 0x00,
  0x20, 0x00, 0x00, 0x00, 0x16, 0x73, 0x18, 0xc0, 0x26, 0xbf, 0x0d, 0xc0,
  0xd7, 0x0b, 0x4c, 0xbf, 0x7f, 0x8c, 0x14, 0xbf, 0xa1, 0x68, 0x57, 0xbf,
  0xfb, 0x25, 0xa4, 0xbf, 0x57, 0x9f, 0x58, 0xbf, 0xd2, 0x0b, 0xc6, 0xbf,
  0x00, 0x00, 0x0e, 0x00, 0x14, 0x00, 0x04, 0x00, 0x00, 0x00, 0x08, 0x00,
  0x0c, 0x00, 0x10, 0x00, 0x0e, 0x00, 0x00, 0x00, 0x10, 0x00, 0x00, 0x00,
  0x02, 0x00, 0x00, 0x00, 0x10, 0x00, 0x00, 0x00, 0x44, 0x00, 0x00, 0x00,
  0x01, 0x00, 0x00, 0x00, 0x08, 0x00, 0x00, 0x00, 0x31, 0x00, 0x00, 0x00,
  0x73, 0x65, 0x71, 0x75, 0x65, 0x6e, 0x74, 0x69, 0x61, 0x6c, 0x2f, 0x63,
  0x6f, 0x6e, 0x76, 0x32, 0x64, 0x2f, 0x42, 0x69, 0x61, 0x73, 0x41, 0x64,
  0x64, 0x2f, 0x52, 0x65, 0x61, 0x64, 0x56, 0x61, 0x72, 0x69, 0x61, 0x62,
  0x6c, 0x65, 0x4f, 0x70, 0x2f, 0x72, 0x65, 0x73, 0x6f, 0x75, 0x72, 0x63,
  0x65, 0x00, 0x00, 0x00, 0x90, 0xff, 0xff, 0xff, 0x14, 0x00, 0x18, 0x00,
  0x04, 0x00, 0x00, 0x00, 0x08, 0x00, 0x0c, 0x00, 0x10, 0x00, 0x00, 0x00,
  0x00, 0x00, 0x14, 0x00, 0x14, 0x00, 0x00, 0x00, 0x14, 0x00, 0x00, 0x00,
  0x01, 0x00, 0x00, 0x00, 0x20, 0x00, 0x00, 0x00, 0x44, 0x00, 0x00, 0x00,
  0x2c, 0x00, 0x00, 0x00, 0x04, 0x00, 0x00, 0x00, 0x01, 0x00, 0x00, 0x00,
  0x40, 0x00, 0x00, 0x00, 0x03, 0x00, 0x00, 0x00, 0x01, 0x00, 0x00, 0x00,
  0x0c, 0x00, 0x00, 0x00, 0x63, 0x6f, 0x6e, 0x76, 0x32, 0x64, 0x5f, 0x69,
  0x6e, 0x70, 0x75, 0x74, 0x00, 0x00, 0x00, 0x00, 0x04, 0x00, 0x00, 0x00,
  0xff, 0xff, 0xff, 0xff, 0x40, 0x00, 0x00, 0x00, 0x03, 0x00, 0x00, 0x00,
  0x01, 0x00, 0x00, 0x00, 0xfc, 0xff, 0xff, 0xff, 0x04, 0x00, 0x04, 0x00,
  0x04, 0x00, 0x00, 0x00
};

unsigned int model_tflite_len = 13120;// Fill the int in `src/model.cc` here